{"version":"1.0","truncation":null,"padding":null,"added_tokens":[{"id":0,"content":"[PAD]","single_word":false,"lstrip":false,"rstrip":false,"normalized":false,"special":true},{"id":1,"content":"[UNK]","single_word":false,"lstrip":false,"rstrip":false,"normalized":false,"special":true},{"id":2,"content":"[BOS]","single_word":false,"lstrip":false,"rstrip":false,"normalized":false,"special":true},{"id":3,"content":"[EOS]","single_word":false,"lstrip":false,"rstrip":false,"normalized":false,"special":true}],"normalizer":{"type":"Sequence","normalizers":[{"type":"NFD"},{"type":"Lowercase"},{"type":"StripAccents"}]},"pre_tokenizer":{"type":"Whitespace"},"post_processor":{"type":"TemplateProcessing","single":[{"SpecialToken":{"id":"[BOS]","type_id":0}},{"Sequence":{"id":"A","type_id":0}},{"SpecialToken":{"id":"[EOS]","type_id":0}}],"pair":[{"SpecialToken":{"id":"[BOS]","type_id":0}},{"Sequence":{"id":"A","type_id":0}},{"SpecialToken":{"id":"[EOS]","type_id":0}},{"Sequence":{"id":"B","type_id":1}},{"SpecialToken":{"id":"[EOS]","type_id":1}}],"special_tokens":{"[BOS]":{"id":"[BOS]","ids":[2],"tokens":["[BOS]"]},"[EOS]":{"id":"[EOS]","ids":[3],"tokens":["[EOS]"]}}},"decoder":{"type":"WordPiece","prefix":"##","cleanup":true},"model":{"type":"WordPiece","unk_token":"[UNK]","continuing_subword_prefix":"##","max_input_chars_per_word":100,"vocab":{"[PAD]":0,"[UNK]":1,"[BOS]":2,"[EOS]":3,"!":4,"#":5,"$":6,"%":7,"&":8,"'":9,"(":10,")":11,"*":12,"+":13,",":14,"-":15,".":16,"/":17,"0":18,"1":19,"2":20,"3":21,"4":22,"5":23,"6":24,"7":25,"8":26,"9":27,":":28,";":29,"<":30,"=":31,">":32,"?":33,"@":34,"[":35,"]":36,"^":37,"_":38,"a":39,"b":40,"c":41,"d":42,"e":43,"f":44,"g":45,"h":46,"i":47,"j":48,"k":49,"l":50,"m":51,"n":52,"o":53,"p":54,"q":55,"r":56,"s":57,"t":58,"u":59,"v":60,"w":61,"x":62,"y":63,"z":64,"|":65,"©":66,"ł":67,"ƒ":68,"ʻ":69,"а":70,"б":71,"в":72,"д":73,"е":74,"и":75,"к":76,"л":77,"н":78,"о":79,"п":80,"р":81,"с":82,"т":83,"э":84,"я":85,"☠":86,"♀":87,"♂":88,"⛏":89,"⛓":90,"⛩":91,"⛪":92,"✏":93,"⬛":94,"イ":95,"ク":96,"サ":97,"ネ":98,"ハ":99,"ン":100,"ー":101,"一":102,"上":103,"世":104,"个":105,"作":106,"克":107,"凤":108,"剑":109,"動":110,"博":111,"厦":112,"司":113,"啊":114,"在":115,"士":116,"大":117,"子":118,"对":119,"小":120,"山":121,"川":122,"巨":123,"市":124,"年":125,"幻":126,"悠":127,"想":128,"攻":129,"朋":130,"机":131,"柔":132,"树":133,"機":134,"橡":135,"殻":136,"的":137,"站":138,"纪":139,"绅":140,"网":141,"薯":142,"赛":143,"都":144,"隊":145,"雨":146,"面":147,"顶":148,"香":149,"黄":150,"！":151,"，":152,"🇵":153,"🇷":154,"🌈":155,"🌊":156,"🌌":157,"🌕":158,"🌠":159,"🌳":160,"🌷":161,"🌹":162,"🌻":163,"🌼":164,"🍁":165,"🍂":166,"🍑":167,"🎨":168,"🎮":169,"🏙":170,"🏳":171,"🏴":172,"🏵":173,"🏻":174,"🏾":175,"🐉":176,"🐘":177,"🐙":178,"🐱":179,"🐺":180,"👀":181,"👁":182,"👂":183,"👩":184,"👾":185,"💥":186,"🔗":187,"🕷":188,"🖥":189,"🖼":190,"😼":191,"🙌":192,"🚀":193,"🚬":194,"🛰":195,"🟥":196,"🟦":197,"🤖":198,"🤳":199,"🥃":200,"🦇":201,"🦊":202,"🦝":203,"🦠":204,"🧘":205,"🧞":206,"🧟":207,"##e":208,"##n":209,"##i":210,"##s":211,"##a":212,"##g":213,"##t":214,"##m":215,"##c":216,"##o":217,"##l":218,"##r":219,"##d":220,"##b":221,"##y":222,"##p":223,"##z":224,"##k":225,"##u":226,"##v":227,"##q":228,"##h":229,"##j":230,"##w":231,"##f":232,"##x":233,"##.":234,"##!":235,"##ł":236,"##'":237,"##э":238,"##🐘":239,"##🤖":240,"##イ":241,"##ハ":242,"##ー":243,"##ン":244,"##ク":245,"##🕷":246,"##🖥":247,"##,":248,"##🌊":249,"##д":250,"##е":251,"##л":252,"##а":253,"##и":254,"##🦊":255,"##🐺":256,"##👀":257,"##🟥":258,"##🌻":259,"##🌷":260,"##🍂":261,"##🌠":262,"##🦝":263,"##♂":264,"##🏻":265,"##🚬":266,"##я":267,"##в":268,"##ƒ":269,"##т":270,"##н":271,"##♀":272,"##🐱":273,"##🥃":274,"##☠":275,"##🌈":276,"##👩":277,"##ネ":278,"##🏾":279,"##🌹":280,"##👾":281,"##о":282,"##б":283,"##р":284,"##с":285,"##к":286,"##ʻ":287,"##👂":288,"##п":289,"##🖼":290,"##🦠":291,"##🏵":292,"##🇷":293,"##in":294,"##er":295,"##on":296,"##ta":297,"##ing":298,"##nd":299,"##ti":300,"##le":301,"##re":302,"##ra":303,"##rt":304,"##an":305,"##ig":306,"##al":307,"##ar":308,"art":309,"##it":310,"##ic":311,"##at":312,"and":313,"##en":314,"##st":315,"##igh":316,"de":317,"in":318,"of":319,"##or":320,"by":321,"##ot":322,"##is":323,"##tion":324,"##ting":325,"##tai":326,"##ol":327,"##ed":328,"##tic":329,"##ac":330,"detai":331,"##ow":332,"pa":333,"##he":334,"##led":335,"re":336,"##om":337,"##ou":338,"##ll":339,"##es":340,"detailed":341,"pain":342,"##ea":343,"sh":344,"##os":345,"##et":346,"##ut":347,"##us":348,"##ly":349,"painting":350,"##ul":351,"##il":352,"##ine":353,"on":354,"po":355,"##sta":356,"##ce":357,"st":358,"##ma":359,"ligh":360,"ma":361,"the":362,"high":363,"an":364,"##station":365,"artstation":366,"##ir":367,"##ric":368,"##oc":369,"##oto":370,"ph":371,"##ph":372,"##el":373,"##ha":374,"bl":375,"##as":376,"con":377,"##tal":378,"photo":379,"##im":380,"port":381,"portra":382,"##un":383,"##ur":384,"##ith":385,"##alis":386,"##am":387,"gre":388,"##id":389,"portrait":390,"##ful":391,"with":392,"##ate":393,"int":394,"##ec":395,"col":396,"##ack":397,"##per":398,"##pt":399,"##ki":400,"##ne":401,"##ent":402,"##igi":403,"digi":404,"##nder":405,"digital":406,"##ge":407,"##um":408,"tre":409,"bea":410,"##ust":411,"##od":412,"##op":413,"##ie":414,"lighting":415,"##alistic":416,"##uti":417,"##nding":418,"beauti":419,"ill":420,"intric":421,"beautiful":422,"intricate":423,"render":424,"greg":425,"##matic":426,"fl":427,"highly":428,"##ski":429,"sc":430,"##ard":431,"trending":432,"##sy":433,"##ure":434,"conce":435,"concept":436,"##ad":437,"##ustra":438,"illustra":439,"##ri":440,"##owski":441,"rut":442,"hy":443,"rutk":444,"##ter":445,"illustration":446,"rutkowski":447,"##anta":448,"##ace":449,"##arp":450,"##ch":451,"cl":452,"en":453,"cine":454,"##ss":455,"##ve":456,"sharp":457,"sp":458,"##ay":459,"##ers":460,"##oth":461,"fanta":462,"color":463,"##te":464,"ar":465,"fantasy":466,"##ro":467,"ha":468,"foc":469,"sty":470,"oc":471,"ch":472,"hyper":473,"##ear":474,"##ight":475,"focus":476,"##ger":477,"cinematic":478,"##raph":479,"style":480,"sm":481,"##ant":482,"light":483,"win":484,"##ity":485,"black":486,"##graph":487,"##ound":488,"##rac":489,"al":490,"##ose":491,"th":492,"octa":493,"octane":494,"##ark":495,"##ov":496,"at":497,"##ons":498,"##ber":499,"realistic":500,"##hi":501,"##ster":502,"dra":503,"gl":504,"##unk":505,"be":506,"detail":507,"man":508,"le":509,"##ue":510,"artger":511,"##ok":512,"##real":513,"ey":514,"un":515,"##ix":516,"artgerm":517,"##ap":518,"##tra":519,"ro":520,"##and":521,"##uc":522,"##ning":523,"##all":524,"!!":525,"##her":526,"li":527,"##de":528,"##ran":529,"mag":530,"##ab":531,"photograph":532,"hea":533,"##ry":534,"fi":535,"##og":536,"##round":537,"br":538,"##ong":539,"##old":540,"cy":541,"wear":542,"##io":543,"##ect":544,"##ual":545,"wearing":546,"sta":547,"face":548,"##ress":549,"oil":550,"eyes":551,"##ature":552,"##ull":553,"##ite":554,"##ud":555,"##etric":556,"fr":557,"##ff":558,"back":559,"##punk":560,"##oman":561,"##ens":562,"flow":563,"##our":564,"dark":565,"##ke":566,"##ple":567,"##realistic":568,"ele":569,"close":570,"cha":571,"fe":572,"##ical":573,"##sc":574,"##ork":575,"wh":576,"##ery":577,"mo":578,"com":579,"hd":580,"##ooth":581,"ex":582,"woman":583,"##own":584,"cyber":585,"##ime":586,"##ground":587,"##ous":588,"eng":589,"ul":590,"ultra":591,"##ward":592,"ne":593,"hair":594,"qual":595,"quality":596,"##ver":597,"long":598,"background":599,"##em":600,"##gant":601,"##ai":602,"sk":603,"lo":604,"elegant":605,"##ion":606,"##th":607,"bi":608,"stud":609,"##work":610,"engine":611,"##olum":612,"smooth":613,"studio":614,"des":615,"unreal":616,"white":617,"cre":618,"##ore":619,"##ide":620,"##ink":621,"colors":622,"##ian":623,"##lop":624,"##ali":625,"##ign":626,"ale":627,"wlop":628,"gold":629,"##ood":630,"##ock":631,"ca":632,"##oun":633,"rob":634,"##li":635,"##ft":636,"anime":637,"very":638,"charac":639,"character":640,"##sh":641,"##ucha":642,"su":643,"##ance":644,"cut":645,"mucha":646,"##ld":647,"dramatic":648,"red":649,"##owing":650,"war":651,"sy":652,"em":653,"##oss":654,"head":655,"fil":656,"##ater":657,"pl":658,"je":659,"##ass":660,"photorealistic":661,"cyberpunk":662,"##gs":663,"paint":664,"winning":665,"##ish":666,"pe":667,"photography":668,"up":669,"design":670,"award":671,"alph":672,"co":673,"##me":674,"blue":675,"alphons":676,"from":677,"shot":678,"##ess":679,"cute":680,"gra":681,"##let":682,"film":683,"##ape":684,"alphonse":685,"##pic":686,"artwork":687,"colour":688,"##eck":689,"##alism":690,"##iv":691,"##ere":692,"##ath":693,"te":694,"##ner":695,"as":696,"##ura":697,"ra":698,"epic":699,"##ia":700,"##one":701,"##ak":702,"##irl":703,"##iron":704,"pix":705,"##viron":706,"##eng":707,"##mm":708,"environ":709,"lar":710,"volum":711,"##gle":712,"##ep":713,"sci":714,"cr":715,"##up":716,"master":717,"##!!":718,"large":719,"##br":720,"ray":721,"##ille":722,"##iss":723,"##ins":724,"details":725,"##che":726,"##ech":727,"##oci":728,"##ody":729,"cat":730,"##ds":731,"##iece":732,"##ib":733,"##scape":734,"##piece":735,"or":736,"med":737,"no":738,"water":739,"##ill":740,"volumetric":741,"mar":742,"girl":743,"masterpiece":744,"sur":745,"cle":746,"full":747,"me":748,"##ition":749,"##fi":750,"##mos":751,"##ety":752,"flowers":753,"golden":754,"##ism":755,"##ociety":756,"creature":757,"##ps":758,"##pp":759,"ba":760,"land":761,"##na":762,"mat":763,"vin":764,"##aw":765,"##mosph":766,"ed":767,"##eld":768,"cor":769,"##ames":770,"##ora":771,"##hib":772,"her":773,"van":774,"##ture":775,"##ment":776,"atmosph":777,"mon":778,"to":779,"##ream":780,"body":781,"shad":782,"jo":783,"##omas":784,"##ush":785,"##istic":786,"ghib":787,"##int":788,"over":789,"##cent":790,"low":791,"mm":792,"sim":793,"##ale":794,"##ild":795,"landscape":796,"is":797,"##to":798,"conte":799,"hor":800,"##ist":801,"lens":802,"sti":803,"gi":804,"pr":805,"per":806,"ross":807,"sun":808,"##ial":809,"ren":810,"bo":811,"##utur":812,"##ord":813,"##ach":814,"can":815,"ins":816,"##ub":817,"la":818,"mic":819,"rendered":820,"ville":821,"##uve":822,"##ami":823,"matte":824,"villene":825,"cgs":826,"cgsociety":827,"thomas":828,"james":829,"##ell":830,"##ble":831,"scen":832,"villeneuve":833,"##ire":834,"##pa":835,"comp":836,"perf":837,"hum":838,"##nds":839,"god":840,"##ade":841,"robot":842,"##ks":843,"city":844,"##pl":845,"human":846,"dream":847,"##av":848,"dress":849,"fur":850,"##oung":851,"clear":852,"tran":853,"arm":854,"##etrical":855,"##tre":856,"##iny":857,"small":858,"magali":859,"extre":860,"##ines":861,"joh":862,"young":863,"##eric":864,"##bal":865,"dy":866,"pet":867,"##light":868,"flu":869,"ab":870,"still":871,"ad":872,"##man":873,"dan":874,"##len":875,"bee":876,"perfect":877,"ger":878,"made":879,"extreme":880,"tra":881,"winner":882,"neon":883,"mus":884,"##ash":885,"contest":886,"for":887,"##king":888,"magic":889,"##echan":890,"tex":891,"ghibli":892,"beeple":893,"##ather":894,"ke":895,"space":896,"environment":897,"futur":898,"##ren":899,"##ye":900,"glowing":901,"cra":902,"night":903,"##gh":904,"##tor":905,"##col":906,"##ron":907,"##art":908,"##ley":909,"##rb":910,"arch":911,"john":912,"che":913,"compos":914,"##echanical":915,"##ating":916,"##aiss":917,"##detai":918,"renaiss":919,"renaissance":920,"car":921,"##ato":922,"peter":923,"vic":924,"##son":925,"##uv":926,"##ney":927,"##detailed":928,"##qu":929,"field":930,"!!!":931,"##mmetrical":932,"dis":933,"composition":934,"##ast":935,"green":936,"brown":937,"mov":938,"##est":939,"##vas":940,"##atter":941,"so":942,"##ya":943,"##ular":944,"##by":945,"##ag":946,"canvas":947,"do":948,"##ni":949,"arti":950,"trac":951,"fine":952,"gr":953,"##ien":954,"##val":955,"##fin":956,"dec":957,"hybr":958,"hybrid":959,"##oon":960,"##ort":961,"angle":962,"##ffy":963,"##ris":964,"poster":965,"draw":966,"bar":967,"]!":968,"##iz":969,"##vel":970,"##ome":971,"closeup":972,"ily":973,"##realism":974,"ilya":975,"bu":976,"##ane":977,"sw":978,"##hu":979,"kink":980,"##tive":981,"##stone":982,"texture":983,"kinkade":984,"tri":985,"##mp":986,"flowing":987,"##iew":988,"peac":989,"micha":990,"##la":991,"wind":992,"tracing":993,"peacock":994,"jean":995,"##ural":996,"out":997,"beh":998,"alex":999,"##ich":1000,"##ror":1001,"spl":1002,"##mb":1003,"fluffy":1004,"movie":1005,"cent":1006,"top":1007,"view":1008,"##ient":1009,"past":1010,"super":1011,"##eam":1012,"extremely":1013,"futuristic":1014,"kuv":1015,"##inov":1016,"##shinov":1017,"michael":1018,"kuvshinov":1019,"stre":1020,"##ation":1021,"##fic":1022,"bra":1023,"##ough":1024,"aen":1025,"mix":1026,"contra":1027,"##orest":1028,"alena":1029,"aenami":1030,"contrast":1031,"old":1032,"shi":1033,"##ling":1034,"dev":1035,"sky":1036,"lea":1037,"moon":1038,"scene":1039,"pastel":1040,"##les":1041,"##ald":1042,"tom":1043,"star":1044,"##ga":1045,"glass":1046,"heart":1047,"cart":1048,"wide":1049,"fema":1050,"fran":1051,"##ered":1052,"##ond":1053,"street":1054,"##acher":1055,"drag":1056,"bright":1057,"##ecker":1058,"hu":1059,"##ndecker":1060,"##lette":1061,"key":1062,"mixed":1063,"##hrb":1064,"mohrb":1065,"mohrbacher":1066,"my":1067,"wood":1068,"##itch":1069,"##uss":1070,"leye":1071,"##ement":1072,"atmospheric":1073,"female":1074,"leyendecker":1075,"min":1076,"neck":1077,"ter":1078,"##fe":1079,"wall":1080,"##raft":1081,"##ick":1082,"palette":1083,"##ame":1084,"ap":1085,"ge":1086,"##nam":1087,"##are":1088,"##tro":1089,"biom":1090,"##alist":1091,"cartoon":1092,"forest":1093,"sit":1094,"##cular":1095,"res":1096,"##ieval":1097,"!!,":1098,"##ouse":1099,"medieval":1100,"vincent":1101,"nature":1102,"##ction":1103,"colorful":1104,"surreal":1105,"##ct":1106,"##ern":1107,"skin":1108,"biomechanical":1109,"pro":1110,"we":1111,"##rop":1112,"alien":1113,"realism":1114,"steam":1115,"jack":1116,"hyperrealistic":1117,"##raw":1118,"shink":1119,"##athers":1120,"goth":1121,"##tain":1122,"blood":1123,"##land":1124,"feathers":1125,"look":1126,"painted":1127,"craig":1128,"moun":1129,"mach":1130,"pol":1131,"##stic":1132,"deep":1133,"##orm":1134,"nat":1135,"##ita":1136,"tribal":1137,"ru":1138,"##ler":1139,"##inal":1140,"cry":1141,"mull":1142,"mullins":1143,"sa":1144,"##que":1145,"##imalist":1146,"natural":1147,"ima":1148,"short":1149,"mak":1150,"trans":1151,"##hion":1152,"##ression":1153,"scre":1154,"scale":1155,"steampunk":1156,"feng":1157,"##ny":1158,"##dress":1159,"dept":1160,"##orph":1161,"headdress":1162,"depth":1163,"real":1164,"feature":1165,"tan":1166,"fire":1167,"wal":1168,"##ese":1169,"comic":1170,"soft":1171,"sitting":1172,"tab":1173,"drawing":1174,"##hetic":1175,"ev":1176,"mid":1177,"sil":1178,"##sk":1179,"##yo":1180,"##fx":1181,"hyperdetailed":1182,"gerard":1183,"neckl":1184,"bas":1185,"vib":1186,"##rand":1187,"lege":1188,"victo":1189,"shinkai":1190,"wet":1191,"##itect":1192,"architect":1193,"makoto":1194,"don":1195,"##oker":1196,"ng":1197,"rha":1198,"##rant":1199,"pixar":1200,"rhads":1201,"am":1202,"di":1203,"ref":1204,"##oke":1205,"orn":1206,"ngai":1207,"whe":1208,"##draw":1209,"necklace":1210,"ornate":1211,"##graphy":1212,"ty":1213,"##ave":1214,"##we":1215,"retro":1216,"dynam":1217,"travel":1218,"fac":1219,"zhu":1220,"##ium":1221,"##lan":1222,"simon":1223,"horror":1224,"##draws":1225,"##eb":1226,"##atch":1227,"spr":1228,"symmetrical":1229,"environement":1230,"giant":1231,"build":1232,"refle":1233,"##ious":1234,"##oshi":1235,"flo":1236,"##rist":1237,"char":1238,"hdr":1239,"rain":1240,"##orphic":1241,"leng":1242,"mi":1243,"mod":1244,"##cing":1245,"##orld":1246,"max":1247,"blur":1248,"machine":1249,"length":1250,"big":1251,"fra":1252,"jun":1253,"##rid":1254,"##tial":1255,"##hart":1256,"atmosphere":1257,"architecture":1258,"building":1259,"##leton":1260,"frank":1261,"image":1262,"##gy":1263,"biolum":1264,"fas":1265,"sea":1266,"##lim":1267,"beks":1268,"rossdraws":1269,"disney":1270,"hop":1271,"##ted":1272,"##era":1273,"##tio":1274,"ratio":1275,"alexa":1276,"aest":1277,"ri":1278,"vfx":1279,"dynamic":1280,"aesthetic":1281,"day":1282,"qu":1283,"##itter":1284,"cast":1285,"fashion":1286,"his":1287,"##tle":1288,"##med":1289,"##zard":1290,"blowing":1291,"legends":1292,"af":1293,"cur":1294,"##top":1295,"##arle":1296,"anth":1297,"##unge":1298,"##aby":1299,"suit":1300,"plan":1301,"cov":1302,"jap":1303,"##ive":1304,"##cient":1305,"##ka":1306,"ancient":1307,"blan":1308,"##randt":1309,"tw":1310,"##mato":1311,"male":1312,"clou":1313,"pixiv":1314,"edward":1315,"!,":1316,"cg":1317,"##inski":1318,"##sting":1319,"cinemato":1320,"marc":1321,"behance":1322,"vibrant":1323,"##ius":1324,"##lin":1325,"##aro":1326,"##ise":1327,"##hes":1328,"warm":1329,"play":1330,"inside":1331,"kren":1332,"##fine":1333,"##ushart":1334,"like":1335,"ultrafine":1336,"lois":1337,"gothic":1338,"traveler":1339,"beksinski":1340,"krenz":1341,"wild":1342,"##arg":1343,"##ots":1344,"##usion":1345,"inter":1346,"japan":1347,"cinematography":1348,"fig":1349,"hold":1350,"##ima":1351,"##az":1352,"##ead":1353,"manche":1354,"manga":1355,"baarle":1356,"devi":1357,"manchess":1358,"har":1359,"world":1360,"##sing":1361,"glo":1362,"rich":1363,"##mon":1364,"##antart":1365,"deviantart":1366,"##ier":1367,"##ho":1368,"baby":1369,"cushart":1370,"el":1371,"sarg":1372,"vect":1373,"##rior":1374,"arri":1375,"leather":1376,"##ffect":1377,"grainy":1378,"artworks":1379,"shadow":1380,"##ired":1381,"hopper":1382,"vector":1383,"gar":1384,"nose":1385,"se":1386,"##bor":1387,"##ker":1388,"##ang":1389,"##omorphic":1390,"warrior":1391,"##paper":1392,"planet":1393,"sargent":1394,"dri":1395,"game":1396,"ind":1397,"##min":1398,"##umin":1399,"mead":1400,"##urs":1401,"coll":1402,"skull":1403,"ball":1404,"lov":1405,"pre":1406,"##ated":1407,"##usta":1408,"##ract":1409,"##here":1410,"japanese":1411,"effect":1412,"rock":1413,"vo":1414,"##ios":1415,"##aly":1416,"##stract":1417,"hands":1418,"ian":1419,"##co":1420,"##wave":1421,"octop":1422,"abstract":1423,"wallpaper":1424,"##ls":1425,"thr":1426,"exp":1427,"emer":1428,"dof":1429,"whelan":1430,"holding":1431,"lovec":1432,"bor":1433,"dunge":1434,"##dess":1435,"##els":1436,"spec":1437,"room":1438,"monster":1439,"goddess":1440,"floating":1441,"tok":1442,"##alf":1443,"lips":1444,"metal":1445,"fa":1446,"gard":1447,"gog":1448,"jes":1449,"##ies":1450,"lion":1451,"armor":1452,"castle":1453,"tokyo":1454,"cam":1455,"he":1456,"round":1457,"wav":1458,"##zy":1459,"##tage":1460,"##scal":1461,"##lage":1462,"huge":1463,"anthrop":1464,"blanche":1465,"log":1466,"way":1467,"##ving":1468,"pascal":1469,"##ury":1470,"coher":1471,"looking":1472,"line":1473,"##ck":1474,"##bo":1475,"##ocaly":1476,"magical":1477,"##brush":1478,"jacket":1479,"based":1480,"cos":1481,"##uit":1482,"##ini":1483,"##ind":1484,"##ump":1485,"heav":1486,"splash":1487,"tank":1488,"fan":1489,"hel":1490,"pin":1491,"##au":1492,"##gg":1493,"dragons":1494,"garden":1495,"mac":1496,"ta":1497,"##ts":1498,"##cut":1499,"##unning":1500,"medium":1501,"watercol":1502,"tyler":1503,"]!!":1504,"chris":1505,"fron":1506,"artistic":1507,"featured":1508,"anthropomorphic":1509,"ass":1510,"will":1511,"##ex":1512,"##hp":1513,"##watch":1514,"anim":1515,"glitter":1516,"many":1517,"rays":1518,"klim":1519,"rough":1520,"##ty":1521,"##ral":1522,"##stop":1523,"dreamy":1524,"dystop":1525,"dancing":1526,"coherent":1527,"bons":1528,"figh":1529,"gig":1530,"sn":1531,"stic":1532,"viv":1533,"##ten":1534,"##ution":1535,"##ence":1536,"illumin":1537,"arc":1538,"noir":1539,"##pping":1540,"hearth":1541,"klimt":1542,"cel":1543,"dot":1544,"mask":1545,"overwatch":1546,"##tori":1547,"gerardo":1548,"hearthstone":1549,"dottori":1550,"pan":1551,"ski":1552,"uns":1553,"##keleton":1554,"screen":1555,"playing":1556,"emerald":1557,"mist":1558,"she":1559,"##olf":1560,"ang":1561,"lightning":1562,"##fied":1563,"watercolor":1564,"##hpurs":1565,"imp":1566,"kod":1567,"##ek":1568,"##eu":1569,"##ns":1570,"remed":1571,"point":1572,"photorealism":1573,"cloth":1574,"chin":1575,"##ussi":1576,"octopath":1577,"logo":1578,"glittering":1579,"fro":1580,"final":1581,"pers":1582,"under":1583,"varo":1584,"##cer":1585,"##ys":1586,"grey":1587,"##iden":1588,"intere":1589,"life":1590,"cybor":1591,"book":1592,"remedios":1593,"interesting":1594,"ej":1595,"nix":1596,"psy":1597,"##jo":1598,"##hag":1599,"##rian":1600,"flower":1601,"emo":1602,"walking":1603,"lovecraft":1604,"jesper":1605,"ejsing":1606,"nixeu":1607,"bussi":1608,"gu":1609,"punk":1610,"##ones":1611,"ste":1612,"##ense":1613,"clouds":1614,"front":1615,"cyborg":1616,"bussiere":1617,"gown":1618,"zbrush":1619,"##bs":1620,"##ird":1621,"##umm":1622,"vivid":1623,"mes":1624,"##ile":1625,"##ior":1626,"##olution":1627,"##room":1628,"stalen":1629,"##ffe":1630,"hero":1631,"dressed":1632,"psych":1633,"au":1634,"fer":1635,"graph":1636,"gusta":1637,"jod":1638,"kn":1639,"##gue":1640,"##mic":1641,"##ples":1642,"surround":1643,"arcane":1644,"jodhpurs":1645,"ac":1646,"da":1647,"##nut":1648,"##ton":1649,"##amp":1650,"##netic":1651,"moeb":1652,"league":1653,"resolution":1654,"##ressionism":1655,"skirt":1656,"stalenhag":1657,"ve":1658,"##ze":1659,"##fish":1660,"##alv":1661,"##atom":1662,"comple":1663,"shaded":1664,"century":1665,"two":1666,"global":1667,"dungeons":1668,"moebius":1669,"asy":1670,"bur":1671,"pink":1672,"zd":1673,"##ings":1674,"##igger":1675,"infin":1676,"jeff":1677,"##ppy":1678,"lake":1679,"maximalist":1680,"ast":1681,"bear":1682,"kir":1683,"kne":1684,"pic":1685,"slight":1686,"tr":1687,"##luc":1688,"##way":1689,"##erem":1690,"##haw":1691,"##rified":1692,"##range":1693,"bat":1694,"et":1695,"fog":1696,"ko":1697,"mc":1698,"rt":1699,"tem":1700,"##lic":1701,"##tian":1702,"##orge":1703,"##etta":1704,"photoreal":1705,"bags":1706,"muscular":1707,"cover":1708,"rtx":1709,"ear":1710,"illusion":1711,"flight":1712,"##erse":1713,"thin":1714,"colourful":1715,"naturel":1716,"sprigger":1717,"cosmic":1718,"kodak":1719,"bagshaw":1720,"gast":1721,"jerem":1722,"nor":1723,"##row":1724,"##bul":1725,"##yn":1726,"chines":1727,"##file":1728,"corrid":1729,"shading":1730,"apocaly":1731,"profile":1732,"helm":1733,"messy":1734,"asymmetrical":1735,"gaston":1736,"chinese":1737,"mark":1738,"tech":1739,"##gan":1740,"##low":1741,"##tan":1742,"##aron":1743,"##olog":1744,"smoke":1745,"expl":1746,"##ored":1747,"gira":1748,"boris":1749,"graphic":1750,"corridor":1751,"cir":1752,"gal":1753,"hour":1754,"mor":1755,"ue":1756,"##ob":1757,"shop":1758,"beast":1759,"colours":1760,"##!!!!":1761,"reflection":1762,"slightly":1763,"remb":1764,"pixie":1765,"edlin":1766,"##ronic":1767,"##arth":1768,"facial":1769,"wayne":1770,"surrounded":1771,"infinite":1772,"kirby":1773,"rembrandt":1774,"aaron":1775,"skeleton":1776,"val":1777,"##adi":1778,"indust":1779,"waves":1780,"illumination":1781,"house":1782,"it":1783,"vis":1784,"##nth":1785,"##dy":1786,"##zis":1787,"##tich":1788,"tree":1789,"choker":1790,"hyperrealism":1791,"##awn":1792,"textures":1793,"zdzis":1794,"jeremy":1795,"hq":1796,"##za":1797,"##tist":1798,"##red":1799,"offic":1800,"##ory":1801,"post":1802,"anima":1803,"collage":1804,"haircut":1805,"vintage":1806,"gogh":1807,"animation":1808,"down":1809,"hot":1810,"ener":1811,"brush":1812,"cybert":1813,"symm":1814,"##plate":1815,"pointed":1816,"complex":1817,"gian":1818,"##rom":1819,"##ony":1820,"antich":1821,"rounded":1822,"animal":1823,"knee":1824,"industri":1825,"cybertronic":1826,"antichrist":1827,"bio":1828,"dawn":1829,"tooth":1830,"##ental":1831,"##oud":1832,"##eau":1833,"##elic":1834,"contain":1835,"jell":1836,"crysta":1837,"transluc":1838,"biolumin":1839,"interior":1840,"camera":1841,"translucent":1842,"park":1843,"squ":1844,"##iro":1845,"##roid":1846,"standing":1847,"##eping":1848,"crown":1849,"insane":1850,"robots":1851,"artist":1852,"through":1853,"snow":1854,"hat":1855,"wu":1856,"##lad":1857,"defin":1858,"##utter":1859,"##ulpt":1860,"sculpt":1861,"new":1862,"tabby":1863,"giger":1864,"reflections":1865,"fly":1866,"ink":1867,"##ower":1868,"elect":1869,"nebul":1870,"##aily":1871,"scifi":1872,"]!,":1873,"terrified":1874,"figure":1875,"sticker":1876,"giraffe":1877,"giancol":1878,"insanely":1879,"sculpture":1880,"bord":1881,"side":1882,"##craft":1883,"##ram":1884,"focused":1885,"##uck":1886,"##pse":1887,"sung":1888,"##ubble":1889,"!!!,":1890,"decal":1891,"dofus":1892,"container":1893,"nebula":1894,"giancola":1895,"just":1896,"mul":1897,"par":1898,"##daily":1899,"##ji":1900,"part":1901,"##osa":1902,"masc":1903,"that":1904,"##berry":1905,"##oral":1906,"archdaily":1907,"chest":1908,"##attered":1909,"shipping":1910,"comics":1911,"gustave":1912,"helmet":1913,"han":1914,"pur":1915,"sle":1916,"corner":1917,"print":1918,"table":1919,"are":1920,"summ":1921,"tak":1922,"##set":1923,"##can":1924,"##lass":1925,"##law":1926,"##ven":1927,"##alog":1928,"anatom":1929,"analog":1930,"love":1931,"centered":1932,"myster":1933,"border":1934,"hear":1935,"kim":1936,"pose":1937,"sing":1938,"tar":1939,"tiny":1940,"##eth":1941,"##etry":1942,"maya":1943,"station":1944,"syd":1945,"clean":1946,"sims":1947,"donato":1948,"model":1949,"curled":1950,"person":1951,"industrial":1952,"definition":1953,"flying":1954,"purple":1955,"hil":1956,"joker":1957,"lit":1958,"lab":1959,"##out":1960,"##ette":1961,"stunning":1962,"into":1963,"trees":1964,"##ople":1965,"sche":1966,"happy":1967,"people":1968,"behind":1969,"evil":1970,"macro":1971,"mysterious":1972,"fo":1973,"ir":1974,"led":1975,"##ary":1976,"##enta":1977,"##ometric":1978,"flat":1979,"##ressive":1980,"##liz":1981,"organ":1982,"quart":1983,"air":1984,"earth":1985,"ot":1986,"ow":1987,"##uz":1988,"##ford":1989,"##ice":1990,"demon":1991,"##ould":1992,"##mash":1993,"##unny":1994,"floral":1995,"##ional":1996,"shadows":1997,"hearstone":1998,"dog":1999,"ni":2000,"yoshi":2001,"##pe":2002,"##hin":2003,"pale":2004,"str":2005,"haired":2006,"##ears":2007,"magni":2008,"synth":2009,"##ficent":2010,"symmetry":2011,"scheme":2012,"magnificent":2013,"synthwave":2014,"lim":2015,"mel":2016,"ry":2017,"wond":2018,"##ax":2019,"robe":2020,"ruan":2021,"silver":2022,"fraz":2023,"heavy":2024,"justin":2025,"half":2026,"work":2027,"##age":2028,"##den":2029,"##orn":2030,"##hara":2031,"##hazard":2032,"crow":2033,"##plash":2034,"unsplash":2035,"knight":2036,"biohazard":2037,"chestnut":2038,"frazetta":2039,"karp":2040,"pi":2041,"##con":2042,"##ux":2043,"##osh":2044,"##ils":2045,"##imir":2046,"##ume":2047,"roy":2048,"##assin":2049,"##inescent":2050,"minim":2051,"prof":2052,"garmash":2053,"assassin":2054,"zdzislaw":2055,"jelly":2056,"anatomical":2057,"karpi":2058,"gur":2059,"vlad":2060,"##ba":2061,"##bit":2062,"##ica":2063,"make":2064,"thre":2065,"##works":2066,"jew":2067,"monet":2068,"official":2069,"vladimir":2070,"eating":2071,"kar":2072,"moth":2073,"mechanical":2074,"##ions":2075,"##shi":2076,"##oi":2077,"##face":2078,"around":2079,"residen":2080,"circ":2081,"gurney":2082,"residential":2083,"bre":2084,"mum":2085,"omin":2086,"ser":2087,"set":2088,"yell":2089,"##iam":2090,"##aut":2091,"##ptic":2092,"andre":2093,"##aces":2094,"##paren":2095,"dreamworks":2096,"mountain":2097,"transparen":2098,"screens":2099,"marcin":2100,"]!!,":2101,"makeup":2102,"ominous":2103,"transparent":2104,"div":2105,"jia":2106,"men":2107,"sl":2108,"tim":2109,"##ming":2110,"##bl":2111,"##kro":2112,"##ator":2113,"staples":2114,"nekro":2115,"##gles":2116,"corre":2117,"poly":2118,"reflec":2119,"handsome":2120,"dystopian":2121,"astron":2122,"picture":2123,"mumford":2124,"eld":2125,"fab":2126,"mut":2127,"rab":2128,"##hot":2129,"##inc":2130,"##edelic":2131,"strange":2132,"mage":2133,"class":2134,"clau":2135,"warcraft":2136,"cozy":2137,"grain":2138,"ghibly":2139,"##tory":2140,"##attering":2141,"##hereal":2142,"fair":2143,"ethereal":2144,"morning":2145,"anatomically":2146,"astronaut":2147,"claude":2148,"den":2149,"radi":2150,"##tall":2151,"chib":2152,"lights":2153,"plant":2154,"cross":2155,"sunset":2156,"dragon":2157,"##ussian":2158,"minimalist":2159,"william":2160,"psychedelic":2161,"jellyfish":2162,"correct":2163,"rabbit":2164,"cas":2165,"mil":2166,"nord":2167,"roman":2168,"si":2169,"vi":2170,"##ain":2171,"##gu":2172,"##cus":2173,"##rit":2174,"##zant":2175,"##ina":2176,"##ened":2177,"byzant":2178,"##asley":2179,"##ador":2180,"alv":2181,"mane":2182,"noise":2183,"metall":2184,"grim":2185,"fanart":2186,"fighter":2187,"wonder":2188,"screenshot":2189,"chibi":2190,"nordic":2191,"byzantine":2192,"],":2193,"aki":2194,"cab":2195,"iv":2196,"pos":2197,"power":2198,"##tty":2199,"##war":2200,"##rad":2201,"##cean":2202,"feather":2203,"##field":2204,"insp":2205,"pretty":2206,"royal":2207,"muted":2208,"metallic":2209,"bos":2210,"fis":2211,"gather":2212,"sad":2213,"##moth":2214,"##rome":2215,"##ult":2216,"stri":2217,"bliz":2218,"empt":2219,"##agnetic":2220,"barlow":2221,"leaks":2222,"frog":2223,"ears":2224,"##romagnetic":2225,"electromagnetic":2226,"radiant":2227,"blizzard":2228,"all":2229,"bunny":2230,"far":2231,"jac":2232,"salv":2233,"witch":2234,"##ves":2235,"##tains":2236,"##ightened":2237,"winter":2238,"live":2239,"liqu":2240,"frightened":2241,"crim":2242,"features":2243,"americ":2244,"blurry":2245,"harris":2246,"battle":2247,"##onym":2248,"irl":2249,"yellow":2250,"liquid":2251,"cou":2252,"card":2253,"fin":2254,"frac":2255,"jose":2256,"king":2257,"lush":2258,"pen":2259,"sam":2260,"##ily":2261,"##se":2262,"##hd":2263,"##futur":2264,"##rey":2265,"##ett":2266,"stone":2267,"mand":2268,"christ":2269,"loish":2270,"grand":2271,"salvador":2272,"bal":2273,"bow":2274,"brian":2275,"imm":2276,"lan":2277,"nin":2278,"wat":2279,"where":2280,"wings":2281,"##house":2282,"##ja":2283,"anders":2284,"paper":2285,"should":2286,"##iling":2287,"greek":2288,"##tern":2289,"hyperreal":2290,"univ":2291,"stan":2292,"champ":2293,"sket":2294,"##essional":2295,"##ches":2296,"media":2297,"##orary":2298,"lau":2299,"scenic":2300,"muse":2301,"contrasting":2302,"george":2303,"jungle":2304,"collie":2305,"professional":2306,"three":2307,"reflective":2308,"empty":2309,"american":2310,"champions":2311,"amb":2312,"ban":2313,"bro":2314,"dust":2315,"mots":2316,"op":2317,"ohara":2318,"patter":2319,"ts":2320,"vamp":2321,"zo":2322,"##dle":2323,"##ko":2324,"##oson":2325,"##ashes":2326,"scattering":2327,"illustrated":2328,"leon":2329,"##deb":2330,"brain":2331,"wetplate":2332,"modern":2333,"##uits":2334,"angel":2335,"galax":2336,"inspired":2337,"gathering":2338,"sketch":2339,"motsar":2340,"bubble":2341,"dav":2342,"ea":2343,"ga":2344,"hun":2345,"society":2346,"urb":2347,"##nch":2348,"##ness":2349,"##ied":2350,"##hou":2351,"##form":2352,"##ally":2353,"pop":2354,"ann":2355,"trench":2356,"scho":2357,"choi":2358,"gray":2359,"toys":2360,"bob":2361,"music":2362,"rift":2363,"meadow":2364,"temple":2365,"energy":2366,"bioluminance":2367,"hildeb":2368,"fractal":2369,"joseph":2370,"hill":2371,"pil":2372,"##cy":2373,"##erce":2374,"##onde":2375,"##less":2376,"##enix":2377,"##etti":2378,"pho":2379,"blonde":2380,"hand":2381,"alb":2382,"fierce":2383,"ultradetailed":2384,"##ished":2385,"##yaza":2386,"stars":2387,"silhou":2388,"charl":2389,"specta":2390,"ambient":2391,"eagle":2392,"hildebrandt":2393,"##yazaki":2394,"cath":2395,"cub":2396,"dali":2397,"easley":2398,"ice":2399,"irid":2400,"icon":2401,"sat":2402,"time":2403,"##under":2404,"##irds":2405,"blond":2406,"bru":2407,"symb":2408,"emb":2409,"##illy":2410,"meg":2411,"##yama":2412,"frame":2413,"jung":2414,"expressionism":2415,"apocalypse":2416,"organic":2417,"liminal":2418,"barlowe":2419,"phoenix":2420,"spectacular":2421,"mush":2422,"pitch":2423,"vap":2424,"vide":2425,"yu":2426,"##ky":2427,"##ert":2428,"##oned":2429,"##olo":2430,"paul":2431,"##omb":2432,"##estic":2433,"##irit":2434,"##urface":2435,"spirit":2436,"subs":2437,"scien":2438,"creatures":2439,"window":2440,"shirt":2441,"diff":2442,"voy":2443,"special":2444,"fighting":2445,"bosch":2446,"school":2447,"vapor":2448,"subsurface":2449,"ag":2450,"ce":2451,"es":2452,"kit":2453,"py":2454,"pal":2455,"tur":2456,"vale":2457,"wha":2458,"ze":2459,"##iled":2460,"##kin":2461,"##hemoth":2462,"##ading":2463,"##cher":2464,"##hip":2465,"behemoth":2466,"##andoned":2467,"brom":2468,"##olds":2469,"coral":2470,"overg":2471,"abandoned":2472,"weird":2473,"middle":2474,"simonetti":2475,"bioluminescent":2476,"figura":2477,"effects":2478,"christian":2479,"owl":2480,"ama":2481,"boke":2482,"cth":2483,"fre":2484,"fall":2485,"good":2486,"tor":2487,"##my":2488,"##str":2489,"phil":2490,"##ham":2491,"colored":2492,"alche":2493,"contemp":2494,"charco":2495,"##coat":2496,"dystopia":2497,"impressionism":2498,"fox":2499,"##lized":2500,"ivory":2501,"mushroom":2502,"vaporwave":2503,"valejo":2504,"figurative":2505,"bokeh":2506,"contemporary":2507,"charcoal":2508,"dim":2509,"fut":2510,"fish":2511,"gri":2512,"hard":2513,"hier":2514,"lu":2515,"##yami":2516,"##jima":2517,"##iter":2518,"inf":2519,"##ison":2520,"##omo":2521,"shattered":2522,"thunder":2523,"simple":2524,"victor":2525,"splashes":2526,"mountains":2527,"crying":2528,"tail":2529,"steve":2530,"denis":2531,"crimson":2532,"video":2533,"hieronym":2534,",,":2535,"bet":2536,"go":2537,"ground":2538,"koson":2539,"lin":2540,"om":2541,"##nt":2542,"##jand":2543,"##ino":2544,"##ret":2545,"##ening":2546,"delic":2547,"##olic":2548,"shin":2549,"storm":2550,"##ims":2551,"stylized":2552,"smiling":2553,"eye":2554,"alejand":2555,"robes":2556,"volume":2557,"##epy":2558,"##nique":2559,"grump":2560,"##arez":2561,"river":2562,"covered":2563,"technique":2564,"visual":2565,"hans":2566,"alvarez":2567,"vampire":2568,"whale":2569,"alejandro":2570,"grumpy":2571,"nic":2572,"net":2573,"ocean":2574,"ward":2575,"##roc":2576,"##zz":2577,"##vers":2578,"##well":2579,"##inting":2580,"##tis":2581,"##anna":2582,"reyn":2583,"##usc":2584,"##uline":2585,"maj":2586,"mart":2587,"##ida":2588,"cold":2589,"##pers":2590,"scar":2591,"spot":2592,"##bert":2593,"mann":2594,"creepy":2595,"monum":2596,"##izon":2597,"apex":2598,"saul":2599,"##ween":2600,"##gged":2601,"##ological":2602,"masculine":2603,"lively":2604,"david":2605,"embroid":2606,"future":2607,"ayami":2608,"butter":2609,"cow":2610,"dore":2611,"lad":2612,"por":2613,"##ges":2614,"##oque":2615,"##bow":2616,"##tire":2617,"del":2618,"##heye":2619,"phot":2620,"##elwe":2621,"##ider":2622,"##ief":2623,"flash":2624,"##ssive":2625,"lost":2626,"edelwe":2627,"adora":2628,"baroque":2629,"trump":2630,"kojima":2631,"square":2632,"fisheye":2633,"universe":2634,"scientist":2635,"cthul":2636,"between":2637,"reynolds":2638,"edelweiss":2639,"ble":2640,"bird":2641,"etern":2642,"hell":2643,"kitch":2644,"lay":2645,"mater":2646,"pig":2647,"roc":2648,"wea":2649,"##eta":2650,"##ao":2651,"##ci":2652,"##ats":2653,"shap":2654,"rendering":2655,"!!!!":2656,"living":2657,"motion":2658,"horns":2659,"horizon":2660,"princ":2661,"boy":2662,"##mano":2663,"deco":2664,"rugged":2665,"void":2666,"crystals":2667,"##ramid":2668,"ryden":2669,"##aceship":2670,"divine":2671,"plants":2672,"trenchcoat":2673,"pyramid":2674,"omni":2675,"majestic":2676,"kitchen":2677,"princess":2678,"action":2679,"amano":2680,"gen":2681,"kon":2682,"kaw":2683,"wolf":2684,"##mer":2685,"##right":2686,"##und":2687,"##hs":2688,"##full":2689,"##taka":2690,"##oro":2691,"##ola":2692,"##hai":2693,"chuck":2694,"ultrarealistic":2695,"pend":2696,"blueberry":2697,"vines":2698,"cheeta":2699,"mystic":2700,"##itas":2701,"afro":2702,"expression":2703,"apocalyptic":2704,"parr":2705,"tarot":2706,"other":2707,"yoshitaka":2708,"immerse":2709,"urbex":2710,"pilot":2711,"silhouette":2712,"cheetah":2713,"hood":2714,"lum":2715,"zh":2716,"##bble":2717,"##ero":2718,"##till":2719,"##rell":2720,"##tions":2721,"sho":2722,"one":2723,"great":2724,"##iding":2725,"glow":2726,"leiter":2727,"lif":2728,"whims":2729,"cybernetic":2730,"##vern":2731,"sub":2732,"emma":2733,"vanitas":2734,"spring":2735,"rainbow":2736,"buildings":2737,"garis":2738,"fairy":2739,"romantic":2740,"adorable":2741,"whimsical":2742,"hay":2743,"las":2744,"lace":2745,"mer":2746,"mosa":2747,"pat":2748,"wi":2749,"##ey":2750,"##gi":2751,"##mal":2752,"##rown":2753,"##yu":2754,"##pg":2755,"##escent":2756,"shark":2757,"massive":2758,"smith":2759,"##graphic":2760,"atten":2761,"attire":2762,"magaz":2763,"teeth":2764,"##awa":2765,"toy":2766,"decora":2767,"starlight":2768,"##sky":2769,"rockwell":2770,"veiled":2771,"illusionistic":2772,"norman":2773,"explos":2774,"fabric":2775,"ninja":2776,"stanley":2777,"amaz":2778,"spotlight":2779,"monumental":2780,"material":2781,"shaped":2782,"pendleton":2783,"mosaic":2784,"attention":2785,"magazine":2786,"aut":2787,"bern":2788,"glen":2789,"gorge":2790,"im":2791,"que":2792,"ron":2793,"ram":2794,"running":2795,"tie":2796,"you":2797,"##ipp":2798,"##ms":2799,"##rol":2800,"##lejo":2801,"##rate":2802,"##ticol":2803,"pay":2804,"rep":2805,"##ouv":2806,"their":2807,"##eli":2808,"##ided":2809,"unfin":2810,"bill":2811,"desert":2812,"streets":2813,"##ared":2814,"naturalism":2815,"silk":2816,"collar":2817,"clothing":2818,"vallejo":2819,"crystal":2820,"multicol":2821,"summer":2822,"little":2823,"crowd":2824,"watson":2825,"shoulder":2826,"overgrown":2827,"explosion":2828,"unfinished":2829,"cap":2830,"dr":2831,"gam":2832,"has":2833,"him":2834,"lyn":2835,"nons":2836,"rim":2837,"sense":2838,"vhs":2839,"wai":2840,"zab":2841,"##ray":2842,"inc":2843,"##tical":2844,"rec":2845,"##ilux":2846,"##unction":2847,"##ptera":2848,"##ader":2849,"##ried":2850,"chiro":2851,"level":2852,"lip":2853,"##ensical":2854,"##ible":2855,"marble":2856,"joe":2857,"swirl":2858,"ship":2859,"terror":2860,"looks":2861,"mount":2862,"donald":2863,"dribble":2864,"underw":2865,"sleeping":2866,"summilux":2867,"minimalistic":2868,"viking":2869,"finn":2870,"annie":2871,"iridescent":2872,"cthulhu":2873,"lifeli":2874,"gorgeous":2875,"nonsensical":2876,"waist":2877,"chiroptera":2878,"lifelike":2879,"din":2880,"ec":2881,"fle":2882,"fic":2883,"gou":2884,"gille":2885,"gau":2886,"jim":2887,"pup":2888,"yog":2889,"##iy":2890,"##ip":2891,"##cence":2892,"##py":2893,"##kes":2894,"##onze":2895,"##nda":2896,"##alak":2897,"##itz":2898,"##ache":2899,"shutter":2900,"##usk":2901,"phys":2902,"intense":2903,"##pera":2904,"digitial":2905,"flame":2906,"conceptual":2907,"spider":2908,"being":2909,"bronze":2910,"##aii":2911,"birt":2912,"redshi":2913,"teen":2914,"orch":2915,"##painting":2916,"furn":2917,"adv":2918,"##lent":2919,"magician":2920,"doom":2921,"geom":2922,"sara":2923,"dies":2924,"multi":2925,"##umei":2926,"circuits":2927,"andreas":2928,"museum":2929,"catholic":2930,"yuumei":2931,"mushrooms":2932,"##rocki":2933,"omnious":2934,"##ouveau":2935,"zabrocki":2936,"fiction":2937,"gilleard":2938,"##iyoshi":2939,"redshift":2940,"bot":2941,"cour":2942,"cines":2943,"dwar":2944,"eared":2945,"gho":2946,"jura":2947,"lop":2948,"run":2949,"san":2950,"tale":2951,"tenta":2952,"zomb":2953,"##ama":2954,"##ota":2955,"##rie":2956,"##ken":2957,"##ste":2958,"##oly":2959,"##esti":2960,"shiny":2961,"##urg":2962,"club":2963,"glam":2964,"leica":2965,"eyeb":2966,"##alls":2967,"froud":2968,"##key":2969,"##engine":2970,"surrealism":2971,"##ppling":2972,"johnson":2973,"growing":2974,"cryengine":2975,"fashioned":2976,"foggy":2977,"nik":2978,"strong":2979,"strip":2980,"jacob":2981,"galaxy":2982,"kitten":2983,"hieronymus":2984,"kawaii":2985,"lipkin":2986,"orchid":2987,"cinestill":2988,"ghost":2989,"tentac":2990,"ber":2991,"fol":2992,"mir":2993,"nouveau":2994,"tea":2995,"##be":2996,"##pus":2997,"##kka":2998,"##uer":2999,"dest":3000,"##olas":3001,"mad":3002,"##amel":3003,"enamel":3004,"speck":3005,"##berg":3006,"glitch":3007,"comb":3008,"##like":3009,"cost":3010,"science":3011,"cris":3012,"mean":3013,"isometric":3014,"stippling":3015,"prop":3016,"abo":3017,"dancer":3018,"futurism":3019,"soph":3020,"brad":3021,"braided":3022,"wooden":3023,"miyazaki":3024,"angry":3025,"burning":3026,"jeffrey":3027,"valley":3028,"karl":3029,"powerful":3030,"patterns":3031,"materials":3032,"diesel":3033,"dist":3034,"dusk":3035,"er":3036,"fast":3037,"ho":3038,"jan":3039,"jas":3040,"lis":3041,"lines":3042,"orange":3043,"russian":3044,"sand":3045,"slim":3046,"tears":3047,"vill":3048,"##gio":3049,"##bet":3050,"##hra":3051,"##hol":3052,"##fl":3053,"##othes":3054,"##ision":3055,"rey":3056,"##use":3057,"stro":3058,"cont":3059,"##iest":3060,"clothes":3061,"spe":3062,"manusc":3063,"eyck":3064,"road":3065,"##shop":3066,"corgi":3067,"##inty":3068,"iso":3069,"priest":3070,"##ires":3071,"gerome":3072,"hug":3073,"walls":3074,"##icked":3075,"maxfield":3076,"gloom":3077,"##board":3078,"dainty":3079,"##ology":3080,"parts":3081,"party":3082,"mascot":3083,"symbol":3084,"philipp":3085,"parrish":3086,"queen":3087,"courbet":3088,"above":3089,"dieselpunk":3090,"az":3091,"but":3092,"die":3093,"jar":3094,"nos":3095,"ori":3096,"ohra":3097,"sec":3098,"santa":3099,"tomas":3100,"ver":3101,"##dt":3102,"##ersta":3103,"painter":3104,"##ets":3105,"##ilian":3106,"step":3107,"##occh":3108,"##getic":3109,"##oding":3110,"##adent":3111,"##ript":3112,"cinema":3113,"beach":3114,"legs":3115,"##ensen":3116,"biersta":3117,"crepus":3118,"alen":3119,"coat":3120,"distan":3121,"decadent":3122,"##rise":3123,"myth":3124,"woodland":3125,"geometric":3126,"richard":3127,"drips":3128,"impression":3129,"kopera":3130,"noriyoshi":3131,"energetic":3132,"akira":3133,"##futurism":3134,"satoshi":3135,"zeus":3136,"hayao":3137,"gouache":3138,"geometrical":3139,"##stein":3140,"nikon":3141,"lisa":3142,"manuscript":3143,"ohrai":3144,"tomasz":3145,"bierstadt":3146,"crepuscular":3147,"food":3148,"how":3149,"hok":3150,"mud":3151,"ok":3152,"pot":3153,"pie":3154,"pier":3155,"tocch":3156,"wright":3157,"zorn":3158,"##nowski":3159,"##gon":3160,"##cke":3161,"##otic":3162,"##lit":3163,"##boss":3164,"##ydy":3165,"##uma":3166,"artur":3167,"##iture":3168,"##isy":3169,"show":3170,"##usai":3171,"##echa":3172,"scot":3173,"##ardo":3174,"##terest":3175,"spatter":3176,"spaceship":3177,"chi":3178,"albert":3179,"##ova":3180,"leydy":3181,"##oking":3182,"!!!!!!":3183,"chair":3184,"who":3185,"##shot":3186,"marta":3187,"proc":3188,"sunny":3189,"dreamlike":3190,"muscan":3191,"##izard":3192,"sword":3193,"tomalak":3194,"rule":3195,"wheels":3196,"mihai":3197,"elf":3198,"linework":3199,"pinterest":3200,"unsett":3201,"animals":3202,"##lasses":3203,"lovell":3204,"tarnowski":3205,"jewels":3206,"brutal":3207,"escher":3208,"delicate":3209,"portal":3210,"amazing":3211,"furniture":3212,"advent":3213,"zombie":3214,"##estival":3215,"glamour":3216,"tentacles":3217,"speed":3218,"oriental":3219,"hokusai":3220,"tocchini":3221,"unsettling":3222,"awe":3223,"bus":3224,"band":3225,"cul":3226,"cell":3227,"festival":3228,"il":3229,"id":3230,"ito":3231,"jong":3232,"ka":3233,"lots":3234,"mouse":3235,"mecha":3236,"ros":3237,"rolf":3238,"sign":3239,"tape":3240,"vel":3241,"zero":3242,"##ev":3243,"##cre":3244,"##oid":3245,"##uh":3246,"##onz":3247,"##onies":3248,"##arian":3249,"##stock":3250,"dem":3251,"##otte":3252,"##otches":3253,"##tional":3254,"shape":3255,"main":3256,"highdetailed":3257,"##irly":3258,"colore":3259,"##oduc":3260,"sch":3261,"##andy":3262,"stat":3263,"oilpainting":3264,"##uda":3265,"biosh":3266,"robust":3267,"##asso":3268,"peonies":3269,"##oratory":3270,"scenery":3271,"armour":3272,"armstr":3273,"caring":3274,"swe":3275,"swirly":3276,"splotches":3277,"terra":3278,"junji":3279,"wavy":3280,"sheet":3281,"frost":3282,"bioluminis":3283,"laboratory":3284,"melting":3285,"breast":3286,"victorian":3287,"lady":3288,"multicolor":3289,"costume":3290,"painterly":3291,"cultist":3292,"coloreful":3293,"bioshock":3294,"armstrong":3295,"away":3296,"dab":3297,"gens":3298,"gem":3299,"jurg":3300,"kats":3301,"lak":3302,"lamp":3303,"ring":3304,"ran":3305,"sou":3306,"##ding":3307,"##zel":3308,"##zhin":3309,"##tag":3310,"##rav":3311,"##alt":3312,"dead":3313,"##owed":3314,"##hei":3315,"##head":3316,"##utom":3317,"##lyph":3318,"##ilt":3319,"highland":3320,"anto":3321,"##ase":3322,"##unch":3323,"##adem":3324,"clo":3325,"claw":3326,"##ssic":3327,"spi":3328,"having":3329,"chrome":3330,"smile":3331,"##rack":3332,"beard":3333,"magrit":3334,"##abora":3335,"fruit":3336,"extra":3337,"neo":3338,"upper":3339,"critter":3340,"waterhouse":3341,"marvel":3342,"micro":3343,"furry":3344,"adult":3345,"##uvism":3346,"braz":3347,"heartstone":3348,"mounts":3349,"polish":3350,"donut":3351,"worldboss":3352,"fauvism":3353,"goggles":3354,"##box":3355,"pincus":3356,"techn":3357,"nihei":3358,"mothman":3359,"elder":3360,"##hday":3361,"mandy":3362,"tsutom":3363,"grizz":3364,"martin":3365,"butterf":3366,"eternal":3367,"repin":3368,"lynx":3369,"underwater":3370,"birthday":3371,"sarazhin":3372,"okuda":3373,"pieta":3374,"genso":3375,"jurgens":3376,"magritte":3377,"critters":3378,"pincushion":3379,"grizzly":3380,"app":3381,"agg":3382,"cot":3383,"dom":3384,"gric":3385,"ky":3386,"kan":3387,"malf":3388,"pile":3389,"riding":3390,"sin":3391,"sus":3392,"tig":3393,"ww":3394,"wizard":3395,"york":3396,"zuz":3397,"##hal":3398,"##jun":3399,"##fit":3400,"arts":3401,"##ics":3402,"##enstein":3403,"##oll":3404,"##eda":3405,"panda":3406,"ret":3407,"anag":3408,"##irde":3409,"##asp":3410,"gree":3411,"##ope":3412,"##adar":3413,"##othoth":3414,"atta":3415,"beer":3416,"bride":3417,"cham":3418,"##emb":3419,"##iano":3420,"horse":3421,"sunrise":3422,"renowed":3423,"last":3424,"comput":3425,"humanoid":3426,"armored":3427,"outfit":3428,"weirde":3429,"charming":3430,"frankenstein":3431,"##rowa":3432,"analogue":3433,"working":3434,"bangles":3435,"zoom":3436,"charlotte":3437,"mystical":3438,"##unctioning":3439,"jason":3440,"control":3441,"hughes":3442,"stepien":3443,"bioluminiscence":3444,"dabrowa":3445,"aggressive":3446,"malfunctioning":3447,"tiger":3448,"zuzanna":3449,"weirdest":3450,".,":3451,"ara":3452,"bel":3453,"cer":3454,"dar":3455,"dance":3456,"ged":3457,"gand":3458,"hen":3459,"houd":3460,"jay":3461,"jones":3462,"mu":3463,"mou":3464,"ob":3465,"tall":3466,"trop":3467,"year":3468,"##ged":3469,"##trac":3470,"##mist":3471,"##cur":3472,"##cap":3473,"##lu":3474,"##bite":3475,"##fac":3476,"##ław":3477,"##inas":3478,"##rel":3479,"##anch":3480,"android":3481,"##mail":3482,"contro":3483,"##adin":3484,"ali":3485,"thirds":3486,"uni":3487,"##allow":3488,"##rylic":3489,"loading":3490,"cave":3491,"##ount":3492,"cool":3493,"##pses":3494,"##mann":3495,"trad":3496,"termin":3497,"geo":3498,"weeping":3499,"every":3500,"factory":3501,"seen":3502,"throne":3503,"panel":3504,"underground":3505,"acrylic":3506,"melanch":3507,"pirate":3508,"classical":3509,"milita":3510,"gaussian":3511,"paladin":3512,"##versial":3513,"layered":3514,"bernie":3515,"jurassic":3516,"strokes":3517,"piercing":3518,"frostbite":3519,"antoine":3520,"houdini":3521,"tropical":3522,"controversial":3523,"terminator":3524,"age":3525,"ash":3526,"bard":3527,"fade":3528,"gonz":3529,"hall":3530,"jos":3531,"let":3532,"mos":3533,"nov":3534,"nich":3535,"piano":3536,"rit":3537,"sig":3538,"sol":3539,"sav":3540,"tin":3541,"tat":3542,"ven":3543,"##ring":3544,"##par":3545,"##kel":3546,"##ui":3547,"##vic":3548,"##hen":3549,"##itt":3550,"##ico":3551,"##ising":3552,"##olate":3553,"##actic":3554,"##oux":3555,"shallow":3556,"##osed":3557,"stub":3558,"concre":3559,"intr":3560,"##ective":3561,"##ads":3562,"##adas":3563,"hazel":3564,"##ovitz":3565,"##able":3566,"staff":3567,"frie":3568,"moody":3569,"##thor":3570,"carav":3571,"characters":3572,"wars":3573,"grass":3574,"crusta":3575,"corpses":3576,"sunlight":3577,"board":3578,"fluid":3579,"carl":3580,"##aggio":3581,"barb":3582,"brand":3583,"devadas":3584,"woods":3585,"elabora":3586,"dripping":3587,"panicked":3588,"picasso":3589,"galactic":3590,"sunglasses":3591,"quarters":3592,"otomo":3593,"menu":3594,"sioux":3595,"cabin":3596,"christensen":3597,"laugh":3598,"broken":3599,"zhang":3600,"mirror":3601,"karlkka":3602,"priestess":3603,"secret":3604,"wrightson":3605,"spatters":3606,"velv":3607,"##uhiro":3608,"breastplate":3609,"katsuhiro":3610,"cloak":3611,"anaglyph":3612,"greeble":3613,"jayison":3614,"gonzale":3615,"tatto":3616,"concrete":3617,"hazelnut":3618,"elaborate":3619,"),":3620,"av":3621,"bed":3622,"bou":3623,"dire":3624,"fried":3625,"games":3626,"jen":3627,"kid":3628,"mature":3629,"na":3630,"nation":3631,"nadar":3632,"pea":3633,"pran":3634,"sora":3635,"sini":3636,"sothoth":3637,"tu":3638,"town":3639,"west":3640,"##ii":3641,"##sel":3642,"##ae":3643,"##ros":3644,"##ross":3645,"##din":3646,"##ville":3647,"##jime":3648,"##wood":3649,"##res":3650,"##atin":3651,"death":3652,"off":3653,"##orpg":3654,"##oup":3655,"##uty":3656,"##rich":3657,"##hair":3658,"##ashi":3659,"##talg":3660,"##iminas":3661,"##ung":3662,"##uring":3663,"beauty":3664,"##ching":3665,"colorfull":3666,"arstation":3667,"hajime":3668,"chick":3669,"thick":3670,"leib":3671,"##lipse":3672,"dramatically":3673,"noisy":3674,"##ills":3675,"mmorpg":3676,"produc":3677,"perform":3678,"adam":3679,"forge":3680,"kehin":3681,"##coli":3682,"##quar":3683,"doing":3684,"group":3685,"textured":3686,"##lestial":3687,"polaro":3688,"police":3689,"dungeon":3690,"helen":3691,"complexity":3692,"taking":3693,"singer":3694,"singular":3695,"caspar":3696,"celestial":3697,"alchemy":3698,"luis":3699,"netfl":3700,"embroidered":3701,"blender":3702,"afrofuturism":3703,"wiley":3704,"slimy":3705,"nostalg":3706,"distance":3707,"##ckevic":3708,"statue":3709,"gediminas":3710,"gandalf":3711,"melancholy":3712,"caravaggio":3713,"pranckevic":3714,"sorayama":3715,"sinister":3716,"kehinde":3717,"polaroid":3718,"netflix":3719,"pranckevicius":3720,"aura":3721,"cad":3722,"dnd":3723,"kilian":3724,"lou":3725,"ner":3726,"pond":3727,"ral":3728,"rac":3729,"riv":3730,"rasp":3731,"sold":3732,"silly":3733,"tes":3734,"uhd":3735,"vr":3736,"wa":3737,"##mund":3738,"##cz":3739,"##zen":3740,"##fra":3741,"##rak":3742,"##ani":3743,"##ana":3744,"##edo":3745,"##star":3746,"##maid":3747,"mas":3748,"##oco":3749,"##ocut":3750,"concer":3751,"##amic":3752,"flick":3753,"##ustration":3754,"cher":3755,"ther":3756,"beat":3757,"robotic":3758,"grace":3759,"island":3760,"rene":3761,"insect":3762,"##rench":3763,"cheap":3764,"artific":3765,"##ations":3766,"floor":3767,"afric":3768,"##boy":3769,"heavily":3770,"ferdin":3771,"buried":3772,"explor":3773,"artists":3774,"taken":3775,"quarter":3776,"workshop":3777,"minimalism":3778,"##futuristic":3779,"bowater":3780,"anderson":3781,"leonardo":3782,"charlie":3783,"linocut":3784,"delville":3785,"rococo":3786,"romanticism":3787,"mermaid":3788,"swirling":3789,"eclipse":3790,"eyeball":3791,"glitchy":3792,"gloomy":3793,"process":3794,"lakota":3795,"butterfly":3796,"josan":3797,"nicholas":3798,"laughing":3799,"velvet":3800,"national":3801,"leibovitz":3802,"ralph":3803,"raspberry":3804,"ferdinand":3805,"ben":3806,"bri":3807,"bak":3808,"cal":3809,"cec":3810,"dre":3811,"fel":3812,"french":3813,"hon":3814,"ham":3815,"luc":3816,"ole":3817,"rol":3818,"sak":3819,"some":3820,"years":3821,"yosh":3822,"##side":3823,"##ging":3824,"##glass":3825,"##ca":3826,"##cl":3827,"##oph":3828,"##bon":3829,"##pocaly":3830,"##ject":3831,"##tapocaly":3832,"##rat":3833,"##ichi":3834,"##enment":3835,"ince":3836,"##olp":3837,"rel":3838,"##oma":3839,"pock":3840,"making":3841,"##astic":3842,"##une":3843,"scary":3844,"##chhol":3845,"enter":3846,"enlight":3847,"haze":3848,"gladi":3849,"royo":3850,"##rying":3851,"##ogue":3852,"##inking":3853,"coils":3854,"ornam":3855,"##itional":3856,"vinci":3857,"cityscape":3858,"##avers":3859,"adver":3860,"gerrit":3861,"buchhol":3862,"##lama":3863,"devil":3864,"brightly":3865,"##itan":3866,"retrofuturistic":3867,"facing":3868,"quint":3869,"cloud":3870,"fancy":3871,"screencap":3872,"hourglass":3873,"postapocaly":3874,"weap":3875,"hoody":3876,"laser":3877,"decorated":3878,"dinosa":3879,"gaugu":3880,"potter":3881,"computer":3882,"traditional":3883,"military":3884,"stubbs":3885,"##thorst":3886,"friedrich":3887,"cadavers":3888,"tesla":3889,"concert":3890,"graceful":3891,"african":3892,"honthorst":3893,"enlightenment":3894,"buchholz":3895,"postapocalyptic":3896,"birds":3897,"cop":3898,"egy":3899,"gent":3900,"lam":3901,"llama":3902,"malv":3903,"nec":3904,"near":3905,"pri":3906,"press":3907,"russ":3908,"sor":3909,"wires":3910,"##nova":3911,"##mith":3912,"##cil":3913,"##bore":3914,"##ping":3915,"##pack":3916,"##pective":3917,"##kins":3918,"##ined":3919,"##ndr":3920,"dean":3921,"page":3922,"pole":3923,"stra":3924,"stream":3925,"##max":3926,"themed":3927,"##ocolate":3928,"##urn":3929,"beams":3930,"flare":3931,"scattered":3932,"child":3933,"chocolate":3934,"##abeth":3935,"##oglu":3936,"broth":3937,"backpack":3938,"chaos":3939,"comm":3940,"neoc":3941,"bib":3942,"emp":3943,"headshot":3944,"grad":3945,"graham":3946,"raver":3947,"ismail":3948,"about":3949,"supernova":3950,"##aldo":3951,"franc":3952,"##ernal":3953,"dirt":3954,"fanbox":3955,"assemb":3956,"perspective":3957,"gustav":3958,"organs":3959,"classic":3960,"wonderland":3961,"cables":3962,"couch":3963,"samura":3964,"diffusion":3965,"tori":3966,"alchemist":3967,"shutterstock":3968,"bottle":3969,"symbolism":3970,"##ademia":3971,"kyoto":3972,"uniform":3973,"##kelmann":3974,"gonzalez":3975,"product":3976,"flickr":3977,"inceoglu":3978,"malveda":3979,"bath":3980,"dut":3981,"dry":3982,"eliz":3983,"fight":3984,"gob":3985,"hol":3986,"kl":3987,"lone":3988,"met":3989,"not":3990,"rat":3991,"rov":3992,"rubble":3993,"sel":3994,"tv":3995,"tro":3996,"vogue":3997,"were":3998,"yo":3999,"##so":4000,"##gen":4001,"##cast":4002,"##lay":4003,"##fer":4004,"##tiz":4005,"##tish":4006,"decol":4007,"##oty":4008,"reed":4009,"anton":4010,"##och":4011,"##haus":4012,"##ident":4013,"internal":4014,"##rix":4015,"clay":4016,"##apix":4017,"##ucture":4018,"##nington":4019,"liu":4020,"chains":4021,"created":4022,"cake":4023,"##life":4024,"plastic":4025,"tendr":4026,"pixel":4027,"##engo":4028,"##ocious":4029,"waterf":4030,"mex":4031,"bag":4032,"herb":4033,"overcast":4034,"boat":4035,"##inesque":4036,"force":4037,"leaves":4038,"glasses":4039,"huang":4040,"weta":4041,"##lands":4042,"legend":4043,"diatom":4044,"pres":4045,"sticking":4046,"knab":4047,"hilma":4048,"##guer":4049,"couple":4050,"pencil":4051,"pennington":4052,"open":4053,"bubbles":4054,"##iefed":4055,"jacobson":4056,"speckling":4057,"combat":4058,"crisp":4059,"ilustration":4060,"idol":4061,"ceramic":4062,"novel":4063,"barbarian":4064,"bouguer":4065,"singularity":4066,"cherry":4067,"oleg":4068,"reliefed":4069,"gauguinesque":4070,"gentle":4071,"straight":4072,"neoclass":4073,"gradient":4074,"francis":4075,"samurai":4076,"elizabeth":4077,"klint":4078,"tendrils":4079,"candy":4080,"crack":4081,"doc":4082,"dio":4083,"fir":4084,"ford":4085,"hit":4086,"oba":4087,"ple":4088,"pit":4089,"path":4090,"rib":4091,"sna":4092,"sach":4093,"ton":4094,"teng":4095}}}