{"version":"1.0","truncation":null,"padding":null,"added_tokens":[{"id":0,"content":"[PAD]","single_word":false,"lstrip":false,"rstrip":false,"normalized":false,"special":true},{"id":1,"content":"[UNK]","single_word":false,"lstrip":false,"rstrip":false,"normalized":false,"special":true},{"id":2,"content":"[BOS]","single_word":false,"lstrip":false,"rstrip":false,"normalized":false,"special":true},{"id":3,"content":"[EOS]","single_word":false,"lstrip":false,"rstrip":false,"normalized":false,"special":true}],"normalizer":{"type":"Sequence","normalizers":[{"type":"NFD"},{"type":"Lowercase"},{"type":"StripAccents"}]},"pre_tokenizer":{"type":"Whitespace"},"post_processor":{"type":"TemplateProcessing","single":[{"SpecialToken":{"id":"[BOS]","type_id":0}},{"Sequence":{"id":"A","type_id":0}},{"SpecialToken":{"id":"[EOS]","type_id":0}}],"pair":[{"SpecialToken":{"id":"[BOS]","type_id":0}},{"Sequence":{"id":"A","type_id":0}},{"SpecialToken":{"id":"[EOS]","type_id":0}},{"Sequence":{"id":"B","type_id":1}},{"SpecialToken":{"id":"[EOS]","type_id":1}}],"special_tokens":{"[BOS]":{"id":"[BOS]","ids":[1],"tokens":["[BOS]"]},"[EOS]":{"id":"[EOS]","ids":[1],"tokens":["[EOS]"]}}},"decoder":{"type":"WordPiece","prefix":"##","cleanup":true},"model":{"type":"WordPiece","unk_token":"[UNK]","continuing_subword_prefix":"##","max_input_chars_per_word":100,"vocab":{"[PAD]":0,"[UNK]":1,"[BOS]":2,"[EOS]":3,"!":4,"#":5,"$":6,"%":7,"&":8,"'":9,"(":10,")":11,"*":12,"+":13,",":14,"-":15,".":16,"/":17,"0":18,"1":19,"2":20,"3":21,"4":22,"5":23,"6":24,"7":25,"8":26,"9":27,":":28,";":29,"<":30,"=":31,">":32,"?":33,"@":34,"[":35,"]":36,"^":37,"_":38,"a":39,"b":40,"c":41,"d":42,"e":43,"f":44,"g":45,"h":46,"i":47,"j":48,"k":49,"l":50,"m":51,"n":52,"o":53,"p":54,"q":55,"r":56,"s":57,"t":58,"u":59,"v":60,"w":61,"x":62,"y":63,"z":64,"|":65,"©":66,"ł":67,"ƒ":68,"ʻ":69,"а":70,"б":71,"в":72,"д":73,"е":74,"и":75,"к":76,"л":77,"н":78,"о":79,"п":80,"р":81,"с":82,"т":83,"э":84,"я":85,"☠":86,"♀":87,"♂":88,"⛏":89,"⛓":90,"⛩":91,"⛪":92,"✏":93,"⬛":94,"イ":95,"ク":96,"サ":97,"ネ":98,"ハ":99,"ン":100,"ー":101,"一":102,"上":103,"世":104,"个":105,"克":106,"凤":107,"剑":108,"動":109,"博":110,"厦":111,"司":112,"啊":113,"在":114,"士":115,"大":116,"子":117,"对":118,"小":119,"山":120,"巨":121,"市":122,"年":123,"幻":124,"想":125,"攻":126,"朋":127,"机":128,"柔":129,"树":130,"機":131,"橡":132,"殻":133,"的":134,"站":135,"纪":136,"绅":137,"网":138,"薯":139,"赛":140,"都":141,"隊":142,"雨":143,"面":144,"顶":145,"香":146,"黄":147,"！":148,"，":149,"🇵":150,"🇷":151,"🌈":152,"🌊":153,"🌌":154,"🌕":155,"🌠":156,"🌳":157,"🌷":158,"🌹":159,"🌻":160,"🌼":161,"🍁":162,"🍂":163,"🍑":164,"🎨":165,"🎮":166,"🏙":167,"🏳":168,"🏴":169,"🏵":170,"🏻":171,"🏾":172,"🐉":173,"🐘":174,"🐙":175,"🐱":176,"🐺":177,"👀":178,"👁":179,"👂":180,"👩":181,"👾":182,"💥":183,"🔗":184,"🕷":185,"🖥":186,"🖼":187,"😼":188,"🙌":189,"🚀":190,"🚬":191,"🛰":192,"🟥":193,"🟦":194,"🤖":195,"🤳":196,"🥃":197,"🦇":198,"🦊":199,"🦝":200,"🦠":201,"🧘":202,"🧞":203,"🧟":204,"##s":205,"##a":206,"##w":207,"##t":208,"##e":209,"##r":210,"##h":211,"##i":212,"##o":213,"##p":214,"##n":215,"##m":216,"##l":217,"##y":218,"##c":219,"##u":220,"##d":221,"##b":222,"##g":223,"##k":224,"##!":225,"##v":226,"##f":227,"##j":228,"##q":229,"##z":230,"##x":231,"##イ":232,"##ハ":233,"##ー":234,"##ン":235,"##ク":236,"##,":237,"##п":238,"##е":239,"##р":240,"##д":241,"##и":242,"##🦊":243,"##🌻":244,"##🍂":245,"##ł":246,"##🇷":247,"##.":248,"##о":249,"##б":250,"##а":251,"##т":252,"##с":253,"##к":254,"##🥃":255,"##👩":256,"##🏾":257,"##🌹":258,"##👾":259,"##ƒ":260,"##🦝":261,"##♂":262,"##🌷":263,"##э":264,"##'":265,"##🐘":266,"##🤖":267,"##🐺":268,"##🌠":269,"##л":270,"##я":271,"##в":272,"##♀":273,"##☠":274,"##🖼":275,"##ネ":276,"##ʻ":277,"##🦠":278,"##🏵":279,"##🐱":280,"##🌈":281,"##н":282,"##👂":283,"##🏻":284,"##🚬":285,"##👀":286,"##🟥":287,"##🕷":288,"##🖥":289,"##🌊":290,"##in":291,"##er":292,"##on":293,"##ta":294,"##ing":295,"##nd":296,"##ti":297,"##le":298,"##rt":299,"##ra":300,"##re":301,"##an":302,"##ig":303,"##al":304,"##ar":305,"art":306,"##it":307,"##ic":308,"and":309,"##en":310,"##at":311,"##igh":312,"de":313,"##st":314,"of":315,"in":316,"##or":317,"by":318,"##tion":319,"##is":320,"##ot":321,"##ting":322,"##tai":323,"##ol":324,"##ac":325,"detai":326,"##ed":327,"pa":328,"##ow":329,"##tic":330,"##led":331,"##es":332,"##he":333,"##ou":334,"##om":335,"detailed":336,"re":337,"##ll":338,"pain":339,"##ea":340,"sh":341,"##ut":342,"painting":343,"##et":344,"##us":345,"##ly":346,"##os":347,"##sta":348,"po":349,"on":350,"##ul":351,"##ce":352,"##ine":353,"##il":354,"st":355,"##station":356,"artstation":357,"##ir":358,"ligh":359,"the":360,"high":361,"ma":362,"##ma":363,"an":364,"##oc":365,"##ric":366,"##ch":367,"bl":368,"##el":369,"##oto":370,"ph":371,"##am":372,"##tal":373,"##as":374,"port":375,"portra":376,"con":377,"##im":378,"##ith":379,"##ph":380,"gre":381,"##un":382,"portrait":383,"##ur":384,"##ack":385,"photo":386,"with":387,"##id":388,"##ate":389,"##ful":390,"int":391,"##alis":392,"##pt":393,"##ki":394,"col":395,"##per":396,"##igi":397,"digi":398,"##ne":399,"##ent":400,"##nder":401,"digital":402,"ch":403,"##op":404,"tre":405,"##um":406,"##ust":407,"##ge":408,"##od":409,"bea":410,"##ct":411,"##ad":412,"##nding":413,"##ie":414,"render":415,"ill":416,"greg":417,"##uti":418,"intric":419,"intricate":420,"beauti":421,"beautiful":422,"##sy":423,"##ski":424,"lighting":425,"fl":426,"##alistic":427,"trending":428,"highly":429,"conce":430,"##matic":431,"concept":432,"##ard":433,"##ure":434,"##ustra":435,"sc":436,"illustra":437,"##owski":438,"rut":439,"##anta":440,"rutk":441,"##ri":442,"illustration":443,"rutkowski":444,"hy":445,"en":446,"##ers":447,"##ace":448,"##ve":449,"cl":450,"##arp":451,"##ay":452,"##ight":453,"##oth":454,"fanta":455,"fantasy":456,"sp":457,"sharp":458,"ha":459,"color":460,"##ear":461,"##ro":462,"cine":463,"##ss":464,"foc":465,"##ger":466,"sty":467,"##ant":468,"ar":469,"sm":470,"light":471,"focus":472,"hyper":473,"##te":474,"style":475,"black":476,"cinematic":477,"##ity":478,"al":479,"th":480,"oc":481,"##ound":482,"##ose":483,"##ons":484,"##hi":485,"octa":486,"man":487,"octane":488,"##raph":489,"##ha":490,"realistic":491,"##ark":492,"ey":493,"dra":494,"detail":495,"gl":496,"le":497,"##tra":498,"artger":499,"##ite":500,"##ix":501,"un":502,"##ue":503,"ro":504,"##unk":505,"##real":506,"be":507,"win":508,"##ber":509,"##and":510,"##ap":511,"artgerm":512,"at":513,"##ster":514,"mo":515,"##all":516,"##ab":517,"##graph":518,"ne":519,"##ke":520,"##ud":521,"li":522,"mag":523,"lo":524,"##her":525,"##io":526,"tra":527,"##ong":528,"br":529,"##ver":530,"wear":531,"hea":532,"wearing":533,"eyes":534,"##round":535,"sta":536,"fi":537,"##old":538,"oil":539,"!!":540,"##ual":541,"##ull":542,"##ning":543,"##oman":544,"##ress":545,"##ff":546,"face":547,"##owing":548,"##ck":549,"##etric":550,"##punk":551,"cy":552,"back":553,"##our":554,"photograph":555,"##ature":556,"ele":557,"##ens":558,"fr":559,"##ry":560,"##ter":561,"##ple":562,"##ork":563,"##de":564,"smo":565,"##own":566,"fe":567,"##ime":568,"woman":569,"##sc":570,"dark":571,"ul":572,"hd":573,"ultra":574,"close":575,"eng":576,"hair":577,"##ara":578,"long":579,"##ok":580,"co":581,"##ground":582,"com":583,"##ai":584,"##ous":585,"wh":586,"##one":587,"##ess":588,"##ery":589,"stud":590,"qual":591,"quality":592,"##gant":593,"cyber":594,"ex":595,"elegant":596,"studio":597,"##th":598,"##og":599,"##work":600,"sk":601,"background":602,"engine":603,"##ect":604,"##realistic":605,"smooth":606,"##ment":607,"unreal":608,"##cha":609,"##olum":610,"mu":611,"##ian":612,"##ink":613,"colors":614,"##lop":615,"##ock":616,"wlop":617,"##len":618,"rob":619,"##ali":620,"anime":621,"white":622,"##ood":623,"##ft":624,"des":625,"##oun":626,"##ion":627,"te":628,"##ere":629,"##sh":630,"##ward":631,"##ide":632,"##ical":633,"gold":634,"##ign":635,"##ore":636,"##ance":637,"##ld":638,"##li":639,"mucha":640,"war":641,"##oss":642,"chara":643,"head":644,"charact":645,"em":646,"su":647,"##ater":648,"ca":649,"pe":650,"##ish":651,"bi":652,"cre":653,"cut":654,"##ran":655,"red":656,"##me":657,"up":658,"very":659,"cyberpunk":660,"character":661,"##let":662,"dramatic":663,"alph":664,"artwork":665,"alphons":666,"je":667,"sy":668,"blue":669,"flow":670,"cute":671,"pl":672,"alphonse":673,"##ag":674,"##ath":675,"paint":676,"##iv":677,"colour":678,"shot":679,"design":680,"##vir":681,"gra":682,"##ape":683,"pix":684,"from":685,"##irl":686,"envir":687,"##eng":688,"##ass":689,"##pic":690,"##ak":691,"cr":692,"volum":693,"lar":694,"cg":695,"as":696,"fil":697,"no":698,"to":699,"large":700,"ray":701,"me":702,"ra":703,"epic":704,"##ins":705,"##alism":706,"##rid":707,"##iss":708,"sci":709,"cat":710,"##ura":711,"##cent":712,"##ps":713,"##mm":714,"##cing":715,"water":716,"##ia":717,"cle":718,"film":719,"girl":720,"##ner":721,"##ille":722,"##ib":723,"##ov":724,"volumetric":725,"##gle":726,"flowers":727,"ed":728,"##fi":729,"photography":730,"##pp":731,"master":732,"##scape":733,"vin":734,"details":735,"##ill":736,"##hib":737,"winning":738,"##oci":739,"##aw":740,"full":741,"award":742,"land":743,"mar":744,"jo":745,"van":746,"##ody":747,"over":748,"med":749,"ghib":750,"##ames":751,"or":752,"##ome":753,"##omas":754,"bo":755,"her":756,"sur":757,"##eld":758,"##ale":759,"##ep":760,"##to":761,"##ach":762,"golden":763,"!!!":764,"is":765,"mat":766,"landscape":767,"ren":768,"##iece":769,"##piece":770,"##ns":771,"##ream":772,"masterpiece":773,"##ade":774,"hor":775,"photorealistic":776,"##ety":777,"##ash":778,"##ial":779,"rendered":780,"shad":781,"##ociety":782,"##av":783,"ross":784,"##int":785,"##ition":786,"mic":787,"gi":788,"##pa":789,"##ush":790,"cor":791,"##istic":792,"thomas":793,"sti":794,"robot":795,"body":796,"lens":797,"##up":798,"##ild":799,"clear":800,"james":801,"sun":802,"##ami":803,"##ism":804,"dress":805,"##ist":806,"ins":807,"mm":808,"##ora":809,"##bal":810,"creature":811,"##ell":812,"##ord":813,"joh":814,"city":815,"matte":816,"pr":817,"##ub":818,"dream":819,"##gh":820,"##utur":821,"small":822,"per":823,"##light":824,"ville":825,"##ire":826,"##man":827,"##uve":828,"villene":829,"la":830,"##tre":831,"##oung":832,"magic":833,"extre":834,"mon":835,"villeneuve":836,"ger":837,"god":838,"##pl":839,"##ble":840,"flu":841,"pet":842,"young":843,"##iny":844,"##nds":845,"can":846,"##ks":847,"scen":848,"ghibli":849,"##ather":850,"arm":851,"bee":852,"##onment":853,"environment":854,"extreme":855,"##ese":856,"perf":857,"sim":858,"dy":859,"##by":860,"##etrical":861,"ad":862,"##ren":863,"dec":864,"magali":865,"beeple":866,"cra":867,"fur":868,"##society":869,"arch":870,"cgsociety":871,"for":872,"##ture":873,"##rb":874,"glowing":875,"neon":876,"##aiss":877,"##eck":878,"renaiss":879,"renaissance":880,"##ye":881,"comp":882,"still":883,"low":884,"##detai":885,"dan":886,"##vel":887,"brown":888,"peter":889,"##detailed":890,"##art":891,"##tor":892,"##uv":893,"do":894,"fine":895,"mus":896,"vic":897,"night":898,"##mb":899,"perfect":900,"##ast":901,"space":902,"##ney":903,"##mos":904,"dis":905,"futur":906,"##qu":907,"alen":908,"##ni":909,"car":910,"hum":911,"##brid":912,"##king":913,"hybrid":914,"##ya":915,"draw":916,"##hu":917,"##stone":918,"poster":919,"angle":920,"green":921,"##ffy":922,"##iz":923,"##mosph":924,"peac":925,"che":926,"##fin":927,"wind":928,"human":929,"peacock":930,"##col":931,"field":932,"tri":933,"flowing":934,"atmosph":935,"micha":936,"ab":937,"##ich":938,"conte":939,"##ien":940,"##val":941,"##ating":942,"tracing":943,"##ane":944,"##mmetrical":945,"ily":946,"top":947,"jean":948,"ilya":949,"kink":950,"sw":951,"##ley":952,"john":953,"kinkade":954,"##ort":955,"arti":956,"##eam":957,"spl":958,"beh":959,"bar":960,"##oon":961,"fluffy":962,"bu":963,"ge":964,"##ris":965,"michael":966,"ale":967,"mov":968,"so":969,"past":970,"##ation":971,"##cra":972,"lea":973,"##ron":974,"##vas":975,"old":976,"##est":977,"##ci":978,"kuv":979,"##inov":980,"##ond":981,"##shinov":982,"extremely":983,"kuvshinov":984,"out":985,"##ror":986,"##ough":987,"super":988,"##iew":989,"compos":990,"movie":991,"pastel":992,"cent":993,"##che":994,"##ald":995,"shi":996,"aen":997,"canvas":998,"alena":999,"aenami":1000,"##ling":1001,"chin":1002,"winner":1003,"##orest":1004,"##ecker":1005,"gr":1006,"##ction":1007,"##ndecker":1008,"bright":1009,"contest":1010,"##fic":1011,"##itch":1012,"##oud":1013,"tom":1014,"view":1015,"neck":1016,"composition":1017,"##son":1018,"leye":1019,"##lette":1020,"futuristic":1021,"leyendecker":1022,"##sting":1023,"##acher":1024,"dev":1025,"##realism":1026,"moh":1027,"fra":1028,"nature":1029,"scene":1030,"##rbacher":1031,"mohrbacher":1032,"]!":1033,"fran":1034,"ter":1035,"palette":1036,"ba":1037,"wall":1038,"##ads":1039,"love":1040,"##alist":1041,"##craft":1042,"moon":1043,"tex":1044,"##athers":1045,"jack":1046,"##ga":1047,"##rand":1048,"##uss":1049,"hyperrealistic":1050,"star":1051,"sky":1052,"vincent":1053,"mix":1054,"steam":1055,"made":1056,"blood":1057,"feathers":1058,"wide":1059,"cart":1060,"wood":1061,"tribal":1062,"mach":1063,"we":1064,"##stic":1065,"##ular":1066,"##ural":1067,"contra":1068,"##ieval":1069,"medieval":1070,"my":1071,"##tain":1072,"##ame":1073,"skin":1074,"craig":1075,"forest":1076,"##ick":1077,"goth":1078,"sit":1079,"##are":1080,"moun":1081,"rh":1082,"alien":1083,"ima":1084,"mull":1085,"##dress":1086,"shink":1087,"scale":1088,"drag":1089,"headdress":1090,"mullins":1091,"##ern":1092,"##chan":1093,"##cture":1094,"feng":1095,"##rop":1096,"##land":1097,"##imalist":1098,"ke":1099,"pro":1100,"##male":1101,"female":1102,"steampunk":1103,"cartoon":1104,"##fe":1105,"mixed":1106,"realism":1107,"min":1108,"tab":1109,"##ec":1110,"##nam":1111,"##les":1112,"##raw":1113,"comic":1114,"gerard":1115,"neckl":1116,"ap":1117,"##ler":1118,"##yo":1119,"##inal":1120,"##amp":1121,"##hion":1122,"heart":1123,"##ato":1124,"trans":1125,"cry":1126,"di":1127,"pol":1128,"##que":1129,"##orm":1130,"victo":1131,"tan":1132,"mak":1133,"look":1134,"drawing":1135,"##tive":1136,"##hetic":1137,"ng":1138,"##atter":1139,"##onement":1140,"necklace":1141,"ru":1142,"##tro":1143,"##press":1144,"stre":1145,"glass":1146,"feature":1147,"##ouse":1148,"rhads":1149,"ngai":1150,"mid":1151,"archite":1152,"splash":1153,"##sk":1154,"surreal":1155,"colorful":1156,"hyperdetailed":1157,"pixar":1158,"nat":1159,"##ita":1160,"##eric":1161,"##atch":1162,"dept":1163,"travel":1164,"closeup":1165,"environement":1166,"shinkai":1167,"##chanical":1168,"depth":1169,"bas":1170,"wal":1171,"zhu":1172,"##we":1173,"##!!":1174,"short":1175,"simon":1176,"texture":1177,"sitting":1178,"makoto":1179,"vib":1180,"wet":1181,"##la":1182,"char":1183,"spr":1184,"soft":1185,"natural":1186,"ty":1187,"machine":1188,"##ium":1189,"blur":1190,"scre":1191,"don":1192,"leng":1193,"whe":1194,"max":1195,"##rist":1196,"length":1197,"fac":1198,"##orph":1199,"##oshi":1200,"##leton":1201,"image":1202,"architecture":1203,"am":1204,"res":1205,"painted":1206,"hu":1207,"##ave":1208,"##lim":1209,"street":1210,"bra":1211,"jun":1212,"hop":1213,"##zard":1214,"##orld":1215,"blowing":1216,"##hart":1217,"horror":1218,"##med":1219,"##lin":1220,"##rant":1221,"day":1222,"ri":1223,"##lan":1224,"##itt":1225,"blan":1226,"##aby":1227,"rain":1228,"orn":1229,"aest":1230,"cur":1231,"sil":1232,"##draw":1233,"##ird":1234,"frank":1235,"ornate":1236,"aesthetic":1237,"mod":1238,"##era":1239,"##arle":1240,"marc":1241,"fas":1242,"##ered":1243,"fire":1244,"pixiv":1245,"kren":1246,"##my":1247,"##aro":1248,"##ushart":1249,"##chess":1250,"cover":1251,"edward":1252,"giant":1253,"disney":1254,"krenz":1255,"##ny":1256,"##arg":1257,"##draws":1258,"jap":1259,"##fine":1260,"lois":1261,"ultrafine":1262,"traveler":1263,"fashion":1264,"big":1265,"im":1266,"se":1267,"##tio":1268,"manchess":1269,"beks":1270,"ratio":1271,"build":1272,"##randt":1273,"##namic":1274,"##cular":1275,"hdr":1276,"alex":1277,"baarle":1278,"mi":1279,"rich":1280,"sa":1281,"##ious":1282,"##br":1283,"##ise":1284,"##ead":1285,"##umin":1286,"dynamic":1287,"gothic":1288,"baby":1289,"cushart":1290,"ev":1291,"qu":1292,"sarg":1293,"##ots":1294,"anth":1295,"cloth":1296,"glo":1297,"lege":1298,"suit":1299,"artworks":1300,"building":1301,"##omorph":1302,"cloud":1303,"manga":1304,"warm":1305,"grainy":1306,"behance":1307,"japan":1308,"sargent":1309,"eff":1310,"##sing":1311,"##ive":1312,"deep":1313,"leather":1314,"biolum":1315,"rossdraws":1316,"vibrant":1317,"##mon":1318,"##tage":1319,"retro":1320,"##usion":1321,"play":1322,"##paper":1323,"hopper":1324,"oct":1325,"tw":1326,"world":1327,"##ka":1328,"##urs":1329,"##ios":1330,"##gy":1331,"##inski":1332,"cast":1333,"contrast":1334,"gar":1335,"har":1336,"mead":1337,"effect":1338,"fig":1339,"nose":1340,"##aly":1341,"anci":1342,"flo":1343,"emer":1344,"symmetrical":1345,"plan":1346,"dof":1347,"beksinski":1348,"ancient":1349,"dri":1350,"##ima":1351,"##min":1352,"##ang":1353,"atmosphere":1354,"wallpaper":1355,"octop":1356,"tok":1357,"vo":1358,"##na":1359,"##co":1360,"coll":1361,"##rior":1362,"devi":1363,"##pression":1364,"whelan":1365,"planet":1366,"sea":1367,"##az":1368,"##ral":1369,"lips":1370,"warrior":1371,"##ired":1372,"japanese":1373,"tokyo":1374,"ball":1375,"hold":1376,"wav":1377,"##eb":1378,"##antart":1379,"like":1380,"##here":1381,"##scal":1382,"inside":1383,"blanche":1384,"legends":1385,"##omorphic":1386,"deviantart":1387,"his":1388,"rock":1389,"pascal":1390,"##usta":1391,"skull":1392,"af":1393,"jes":1394,"pre":1395,"##dess":1396,"##go":1397,"##ind":1398,"##alf":1399,"thr":1400,"lion":1401,"goddess":1402,"bor":1403,"el":1404,"ind":1405,"##wave":1406,"##ini":1407,"tank":1408,"ian":1409,"line":1410,"##lu":1411,"##gg":1412,"##ocaly":1413,"jacket":1414,"##ier":1415,"##ker":1416,"##ines":1417,"room":1418,"tyler":1419,"##ury":1420,"##tering":1421,"based":1422,"emerald":1423,"gog":1424,"game":1425,"round":1426,"way":1427,"##watch":1428,"##ted":1429,"##zy":1430,"hands":1431,"medium":1432,"ass":1433,"klim":1434,"##ated":1435,"anim":1436,"##els":1437,"##unge":1438,"inter":1439,"!!,":1440,"artistic":1441,"bons":1442,"rough":1443,"vect":1444,"wild":1445,"##unning":1446,"tran":1447,"klimt":1448,"vector":1449,"cam":1450,"dot":1451,"##hstone":1452,"##uit":1453,"##bor":1454,"##stop":1455,"magical":1456,"noir":1457,"##pping":1458,"overwatch":1459,"dystop":1460,"##tori":1461,"gerardo":1462,"hearthstone":1463,"dottori":1464,"bag":1465,"cel":1466,"he":1467,"##hp":1468,"chris":1469,"illumin":1470,"arc":1471,"many":1472,"biome":1473,"featured":1474,"anthrop":1475,"holding":1476,"cos":1477,"##ution":1478,"##ittering":1479,"mask":1480,"armor":1481,"looking":1482,"castle":1483,"##hpurs":1484,"fan":1485,"stic":1486,"ski":1487,"ta":1488,"will":1489,"##eu":1490,"##cut":1491,"##bo":1492,"##olf":1493,"remed":1494,"point":1495,"ste":1496,"glittering":1497,"##keleton":1498,"fer":1499,"pin":1500,"varo":1501,"intere":1502,"rays":1503,"##fied":1504,"remedios":1505,"interesting":1506,"nix":1507,"##ys":1508,"lightning":1509,"heav":1510,"watercol":1511,"octopath":1512,"nixeu":1513,"##set":1514,"##ek":1515,"##mic":1516,"##ving":1517,"##att":1518,"##ffe":1519,"playing":1520,"anthropomorphic":1521,"fro":1522,"gown":1523,"shadow":1524,"key":1525,"!,":1526,"au":1527,"ej":1528,"psy":1529,"##fish":1530,"ref":1531,"##hag":1532,"dreamy":1533,"dragons":1534,"jesper":1535,"biomechanical":1536,"ejsing":1537,"jod":1538,"mes":1539,"pers":1540,"sn":1541,"viv":1542,"##gue":1543,"##ence":1544,"male":1545,"##ump":1546,"fron":1547,"clouds":1548,"arcane":1549,"jodhpurs":1550,"gard":1551,"hel":1552,"mac":1553,"pan":1554,"##ius":1555,"##olution":1556,"stalen":1557,"##ense":1558,"league":1559,"final":1560,"gu":1561,"mist":1562,"##nut":1563,"shaded":1564,"lovecraft":1565,"psych":1566,"she":1567,"##ts":1568,"##cer":1569,"##iger":1570,"##netic":1571,"hero":1572,"##ussi":1573,"maximalist":1574,"resolution":1575,"global":1576,"skirt":1577,"watercolor":1578,"stalenhag":1579,"kne":1580,"slight":1581,"##igger":1582,"ang":1583,"grey":1584,"chok":1585,"##rified":1586,"##ppy":1587,"dressed":1588,"dancing":1589,"atmospheric":1590,"floating":1591,"refle":1592,"garden":1593,"fa":1594,"pink":1595,"rt":1596,"infin":1597,"photoreal":1598,"##erse":1599,"comple":1600,"rtx":1601,"ast":1602,"bussi":1603,"graph":1604,"kir":1605,"kod":1606,"##ty":1607,"##stra":1608,"life":1609,"naturel":1610,"sprigger":1611,"bussiere":1612,"bear":1613,"da":1614,"dunge":1615,"pic":1616,"##ile":1617,"##ies":1618,"##ls":1619,"##bul":1620,"##jo":1621,"flight":1622,"emo":1623,"corrid":1624,"century":1625,"walking":1626,"##brush":1627,"asy":1628,"bur":1629,"gusta":1630,"ko":1631,"kn":1632,"ve":1633,"##ze":1634,"thin":1635,"book":1636,"gira":1637,"messy":1638,"vivid":1639,"corridor":1640,"asymmetrical":1641,"ear":1642,"ue":1643,"##way":1644,"##yn":1645,"##orge":1646,"shop":1647,"logo":1648,"lake":1649,"chinese":1650,"apocaly":1651,"screen":1652,"front":1653,"slightly":1654,"##stract":1655,"nor":1656,"##sha":1657,"illusion":1658,"pixie":1659,"edlin":1660,"abstract":1661,"cosmic":1662,"kirby":1663,"gast":1664,"under":1665,"zd":1666,"##ex":1667,"##row":1668,"##gan":1669,"##tian":1670,"remb":1671,"facial":1672,"two":1673,"waves":1674,"gaston":1675,"rembrandt":1676,"hour":1677,"##tan":1678,"##tich":1679,"coher":1680,"colourful":1681,"##borg":1682,"choker":1683,"infinite":1684,"hq":1685,"sch":1686,"skeleton":1687,"##ings":1688,"##red":1689,"hyperrealism":1690,"cyborg":1691,"surround":1692,"illumination":1693,"graphic":1694,"jere":1695,"##ton":1696,"##nth":1697,"##low":1698,"##tial":1699,"##alv":1700,"tree":1701,"brush":1702,"haircut":1703,"expl":1704,"##file":1705,"vintage":1706,"shading":1707,"profile":1708,"boris":1709,"bagsha":1710,"pointed":1711,"complex":1712,"bagshaw":1713,"fog":1714,"##ory":1715,"##etta":1716,"antich":1717,"##awn":1718,"wayne":1719,"knee":1720,"antichrist":1721,"cir":1722,"mc":1723,"##rom":1724,"##bs":1725,"##eau":1726,"contain":1727,"##adi":1728,"rounded":1729,"animal":1730,"dungeons":1731,"jeremy":1732,"gian":1733,"lu":1734,"##ior":1735,"##zis":1736,"offic":1737,"post":1738,"##iro":1739,"##rian":1740,"##room":1741,"robots":1742,"biolumin":1743,"zdzis":1744,"##osh":1745,"##ored":1746,"crown":1747,"helm":1748,"reflection":1749,"kodak":1750,"dawn":1751,"mark":1752,"##ones":1753,"ink":1754,"real":1755,"nebul":1756,"##ples":1757,"##aily":1758,"terrified":1759,"tabby":1760,"indust":1761,"camera":1762,"giraffe":1763,"coherent":1764,"hat":1765,"it":1766,"park":1767,"##ob":1768,"##uck":1769,"##elic":1770,"cha":1771,"focused":1772,"tech":1773,"!!!,":1774,"decal":1775,"dofus":1776,"gogh":1777,"container":1778,"nebula":1779,"bio":1780,"bord":1781,"fight":1782,"ga":1783,"squ":1784,"zbrush":1785,"##lad":1786,"##daily":1787,"##za":1788,"del":1789,"masc":1790,"moeb":1791,"standing":1792,"##range":1793,"##pse":1794,"archdaily":1795,"shipping":1796,"through":1797,"giancol":1798,"ac":1799,"##mer":1800,"##fx":1801,"elect":1802,"corner":1803,"insane":1804,"##arth":1805,"chest":1806,"moebius":1807,"giancola":1808,"down":1809,"gal":1810,"##ental":1811,"##osa":1812,"anima":1813,"spec":1814,"smoke":1815,"jeff":1816,"colours":1817,"muscular":1818,"table":1819,"sticker":1820,"snow":1821,"surrounded":1822,"industri":1823,"animation":1824,"hot":1825,"hear":1826,"##ice":1827,"##roid":1828,"##ude":1829,"##plate":1830,"myster":1831,"comics":1832,"curled":1833,"border":1834,"insanely":1835,"mul":1836,"tak":1837,"vis":1838,"##tist":1839,"##olog":1840,"part":1841,"##lly":1842,"##utter":1843,"sche":1844,"symm":1845,"##eping":1846,"behind":1847,"translu":1848,"figure":1849,"mysterious":1850,"translucent":1851,"led":1852,"tiny":1853,"##ony":1854,"defin":1855,"##ulpt":1856,"sculpt":1857,"##graphy":1858,"new":1859,"crysta":1860,"donato":1861,"gustave":1862,"reflections":1863,"et":1864,"ow":1865,"pur":1866,"##law":1867,"##uz":1868,"##eth":1869,"maya":1870,"##mash":1871,"cla":1872,"that":1873,"syd":1874,"sung":1875,"hearstone":1876,"sculpture":1877,"fo":1878,"han":1879,"lab":1880,"sum":1881,"##ient":1882,"##yd":1883,"##ometric":1884,"##unny":1885,"ener":1886,"magni":1887,"tooth":1888,"##ficent":1889,"impression":1890,"evil":1891,"scheme":1892,"magnificent":1893,"ot":1894,"tr":1895,"val":1896,"stunning":1897,"trees":1898,"station":1899,"robe":1900,"scifi":1901,"organ":1902,"huge":1903,"purple":1904,"giger":1905,"kim":1906,"pose":1907,"sing":1908,"sle":1909,"wu":1910,"yoshi":1911,"##ji":1912,"##enta":1913,"demon":1914,"##etry":1915,"flat":1916,"##hara":1917,"##hazard":1918,"synth":1919,"person":1920,"biohazard":1921,"fly":1922,"karp":1923,"lim":1924,"punk":1925,"side":1926,"##ould":1927,"str":1928,"photorealism":1929,"##ople":1930,"tem":1931,"people":1932,"##assin":1933,"artist":1934,"garmash":1935,"assassin":1936,"chestnut":1937,"karpi":1938,"house":1939,"mor":1940,"##ram":1941,"pale":1942,"##ume":1943,"haired":1944,"model":1945,"quart":1946,"macro":1947,"zdzislaw":1948,"helmet":1949,"industrial":1950,"definition":1951,"gur":1952,"half":1953,"just":1954,"moth":1955,"##age":1956,"##oi":1957,"##ower":1958,"make":1959,"scar":1960,"uns":1961,"##works":1962,"clean":1963,"monet":1964,"ruan":1965,"are":1966,"batt":1967,"hil":1968,"mel":1969,"par":1970,"##aut":1971,"##ree":1972,"##imir":1973,"##ears":1974,"roy":1975,"jew":1976,"monster":1977,"fraz":1978,"marcin":1979,"interior":1980,"symmetry":1981,"synthwave":1982,"gurney":1983,"sl":1984,"vlad":1985,"##ions":1986,"##ptic":1987,"##kro":1988,"##ils":1989,"nekro":1990,"##ional":1991,"##gles":1992,"##paren":1993,"##ubble":1994,"dreamworks":1995,"centered":1996,"transparen":1997,"heavy":1998,"astron":1999,"circ":2000,"official":2001,"makeup":2002,"frazetta":2003,"vladimir":2004,"transparent":2005,"earth":2006,"omin":2007,"work":2008,"wond":2009,"##se":2010,"##bit":2011,"##orn":2012,"##liz":2013,"warcraft":2014,"##field":2015,"alexa":2016,"picture":2017,"claude":2018,"flying":2019,"astronaut":2020,"ominous":2021,"div":2022,"eld":2023,"men":2024,"ni":2025,"##iam":2026,"##inc":2027,"into":2028,"chib":2029,"##rip":2030,"jelly":2031,"grain":2032,"crow":2033,"cross":2034,"ghibly":2035,"textures":2036,"dystopian":2037,"bird":2038,"set":2039,"##ming":2040,"##zant":2041,"andre":2042,"byzant":2043,"##out":2044,"pop":2045,"mage":2046,"happy":2047,"alv":2048,"mane":2049,"cozy":2050,"##ussian":2051,"prof":2052,"minimalist":2053,"knight":2054,"chibi":2055,"jellyfish":2056,"byzantine":2057,"fab":2058,"jia":2059,"rab":2060,"tar":2061,"witch":2062,"##con":2063,"##uc":2064,"##bl":2065,"##ford":2066,"##ened":2067,"##ator":2068,"##edelic":2069,"##ette":2070,"flora":2071,"scatter":2072,"staples":2073,"noise":2074,"screens":2075,"frog":2076,"psychedelic":2077,"justin":2078,"royal":2079,"air":2080,"aki":2081,"eating":2082,"radi":2083,"##aces":2084,"##cean":2085,"bliz":2086,"empt":2087,"plant":2088,"##agnetic":2089,"leaks":2090,"mountain":2091,"##lage":2092,"handsome":2093,"fanart":2094,"william":2095,"##romagnetic":2096,"electromagnetic":2097,"wonder":2098,"rabbit":2099,"blizzard":2100,"den":2101,"go":2102,"gather":2103,"jac":2104,"kar":2105,"vfx":2106,"##ax":2107,"##rome":2108,"##can":2109,"##uer":2110,"##ina":2111,"##ica":2112,"champ":2113,"##ador":2114,"class":2115,"##ightened":2116,"frightened":2117,"feather":2118,"crim":2119,"metal":2120,"sunset":2121,"##plash":2122,"poly":2123,"blurry":2124,"fighter":2125,"unsplash":2126,"bre":2127,"bunny":2128,"cab":2129,"fin":2130,"pos":2131,"##shi":2132,"##hin":2133,"##hot":2134,"##ool":2135,"##mato":2136,"##ven":2137,"##tains":2138,"##less":2139,"beast":2140,"loish":2141,"harris":2142,"##hereal":2143,"ethereal":2144,"battle":2145,"cas":2146,"far":2147,"fis":2148,"iv":2149,"imm":2150,"nin":2151,"si":2152,"ser":2153,"tim":2154,"##ama":2155,"##tty":2156,"##rit":2157,"##hd":2158,"##cy":2159,"anders":2160,"##ste":2161,"##etch":2162,"##ult":2163,"greek":2164,"cinemato":2165,"univ":2166,"sketch":2167,"print":2168,"muse":2169,"silver":2170,"pretty":2171,"ears":2172,"screenshot":2173,"radiant":2174,"empty":2175,"dust":2176,"jose":2177,"lush":2178,"mots":2179,"ohara":2180,"pen":2181,"salv":2182,"vi":2183,"where":2184,"zo":2185,"##ten":2186,"##house":2187,"##ves":2188,"##ja":2189,"##oson":2190,"three":2191,"winter":2192,"liqu":2193,"collie":2194,"##uits":2195,"floral":2196,"champions":2197,"motsar":2198,"liquid":2199,"bal":2200,"cou":2201,"mut":2202,"mum":2203,"sam":2204,"urb":2205,"vamp":2206,"yell":2207,"ze":2208,"##ied":2209,"##nch":2210,"##lass":2211,"##ky":2212,"choi":2213,"trench":2214,"grand":2215,"toys":2216,"mechanical":2217,"george":2218,"rift":2219,"meadow":2220,"bioluminance":2221,"gathering":2222,"salvador":2223,"mumford":2224,"all":2225,"amb":2226,"dav":2227,"eag":2228,"king":2229,"sad":2230,"wings":2231,"##ms":2232,"##cus":2233,"##dle":2234,"##erce":2235,"##etti":2236,"##iden":2237,"christ":2238,"##berry":2239,"live":2240,"fierce":2241,"ultradetailed":2242,"insp":2243,"##tory":2244,"barlow":2245,"charl":2246,"modern":2247,"##onym":2248,"cinematography":2249,"eagle":2250,"hun":2251,"nord":2252,"society":2253,"##ain":2254,"##ho":2255,"##under":2256,"##vers":2257,"##enix":2258,"##ighting":2259,"should":2260,"mand":2261,"pho":2262,"around":2263,"symb":2264,"flower":2265,"##yama":2266,"]!,":2267,"contrasting":2268,"temple":2269,"joseph":2270,"nordic":2271,"hill":2272,"pitch":2273,"patter":2274,"power":2275,"roman":2276,"ts":2277,"time":2278,"##rey":2279,"##estic":2280,"strange":2281,"##ading":2282,"lights":2283,"hyperreal":2284,"leon":2285,"expression":2286,"emb":2287,"gray":2288,"diff":2289,"features":2290,"americ":2291,"jung":2292,"jungle":2293,"voy":2294,"apocalypse":2295,"muted":2296,"phoenix":2297,"ban":2298,"bow":2299,"wha":2300,"##iled":2301,"##face":2302,"##form":2303,"##oned":2304,"##ally":2305,"##irit":2306,"##cher":2307,"spirit":2308,"coral":2309,"overg":2310,"dragon":2311,"simonetti":2312,"wetplate":2313,"effects":2314,"angel":2315,"fair":2316,"school":2317,"special":2318,"owl":2319,"liminal":2320,"ambient":2321,"cth":2322,"es":2323,"ice":2324,"op":2325,"pi":2326,"sat":2327,"vap":2328,"vale":2329,"yu":2330,"##war":2331,"##yu":2332,"##ctal":2333,"##onde":2334,"##alog":2335,"##escent":2336,"##iling":2337,"stone":2338,"analog":2339,"blonde":2340,"##rok":2341,"alb":2342,"##andoned":2343,"##ressive":2344,"##tern":2345,"##deb":2346,"##essional":2347,"##ished":2348,"##illy":2349,"abandoned":2350,"fractal":2351,"minim":2352,"charco":2353,"##coat":2354,"dystopia":2355,"organic":2356,"professional":2357,"ivory":2358,"inspired":2359,"american":2360,"vapor":2361,"valejo":2362,"charcoal":2363,"bos":2364,"pal":2365,"tor":2366,"##ux":2367,"##ko":2368,"##ino":2369,"##str":2370,"##ison":2371,"##ott":2372,"##olo":2373,"ann":2374,"phil":2375,"##asley":2376,"##pers":2377,"arri":2378,"thunder":2379,"##keh":2380,"##vern":2381,"stan":2382,"bob":2383,"bokeh":2384,"lau":2385,"window":2386,"weird":2387,"middle":2388,"fox":2389,"hildeb":2390,"crimson":2391,"yellow":2392,"cath":2393,"dim":2394,"dali":2395,"fre":2396,"fighting":2397,"koson":2398,"mil":2399,"om":2400,"pil":2401,"##ness":2402,"##jand":2403,"##ert":2404,"##tall":2405,"##atom":2406,"paul":2407,"rep":2408,"blond":2409,"volume":2410,"##yaza":2411,"alejand":2412,"grim":2413,"##arez":2414,"mountains":2415,"##!!!!":2416,"christian":2417,"steve":2418,"alvarez":2419,"whale":2420,"vaporwave":2421,"hildebrandt":2422,"##yazaki":2423,"alejandro":2424,"card":2425,"dog":2426,"fall":2427,"fish":2428,"gri":2429,"icon":2430,"nic":2431,"ob":2432,"wat":2433,"##roc":2434,"##hou":2435,"##yami":2436,"##kin":2437,"##jima":2438,"##inting":2439,"##rad":2440,"##iter":2441,"##omo":2442,"##omb":2443,"##use":2444,"##uline":2445,"maj":2446,"##ida":2447,"robes":2448,"metall":2449,"##izon":2450,"grump":2451,"frame":2452,"saul":2453,"figura":2454,"masculine":2455,"morning":2456,"denis":2457,"universe":2458,"vampire":2459,"barlowe":2460,"bosch":2461,"grumpy":2462,"cub":2463,"irid":2464,"ocean":2465,"por":2466,"vide":2467,"##well":2468,"##ily":2469,"##zz":2470,"##tire":2471,"reyn":2472,"##elwe":2473,"colored":2474,"spot":2475,"alche":2476,"mann":2477,"bru":2478,"brom":2479,"##olds":2480,"edelwe":2481,"crying":2482,"splashes":2483,"silhou":2484,"shadows":2485,"visual":2486,"hans":2487,"##aceshi":2488,"david":2489,"embroid":2490,"cthul":2491,"metallic":2492,"figurative":2493,"edelweiss":2494,"etern":2495,"hell":2496,"lay":2497,"ward":2498,"##oque":2499,"##ret":2500,"##heye":2501,"##ches":2502,"cold":2503,"rendering":2504,"flash":2505,"eye":2506,"motion":2507,"living":2508,"lost":2509,"horizon":2510,"monum":2511,"adora":2512,"deco":2513,"chee":2514,"baroque":2515,"shirt":2516,"covered":2517,"void":2518,"impressionism":2519,"fisheye":2520,"trenchcoat":2521,"omni":2522,"majestic":2523,"reynolds":2524,",,":2525,"ayami":2526,"ble":2527,"bet":2528,"hier":2529,"id":2530,"kitch":2531,"##right":2532,"##full":2533,"##futur":2534,"##tah":2535,"##ary":2536,"storm":2537,"mart":2538,"##ider":2539,"##ssive":2540,"##bert":2541,"ultrarealistic":2542,"pend":2543,"horns":2544,"##mano":2545,"##nique":2546,"mystic":2547,"river":2548,"tail":2549,"kojima":2550,"technique":2551,"galax":2552,"parr":2553,"plants":2554,"immerse":2555,"urbex":2556,"cheetah":2557,"hieronym":2558,"kitchen":2559,"action":2560,"amano":2561,"brian":2562,"ce":2563,"kitt":2564,"lad":2565,"mater":2566,"net":2567,"wolf":2568,"zh":2569,"##nt":2570,"##bow":2571,"##ges":2572,"##ero":2573,"##taka":2574,"##oro":2575,"hand":2576,"leiter":2577,"lif":2578,"blueberry":2579,"meg":2580,"princ":2581,"victor":2582,"##itas":2583,"##ween":2584,"garis":2585,"apocalyptic":2586,"square":2587,"yoshitaka":2588,"##lized":2589,"divine":2590,"lively":2591,"video":2592,"princess":2593,"fut":2594,"gen":2595,"hood":2596,"kaw":2597,"mosa":2598,"tie":2599,"wi":2600,"##rown":2601,"##hs":2602,"##mal":2603,"##bble":2604,"##gi":2605,"##rell":2606,"##anna":2607,"##ola":2608,"sho":2609,"shin":2610,"shap":2611,"strip":2612,"chuck":2613,"smith":2614,"smiling":2615,"atten":2616,"attire":2617,"toy":2618,"vanitas":2619,"##epy":2620,"scenic":2621,"music":2622,"starlight":2623,"veiled":2624,"explos":2625,"other":2626,"ninja":2627,"adorable":2628,"between":2629,"pendleton":2630,"mosaic":2631,"attention":2632,"bern":2633,"butter":2634,"cow":2635,"dore":2636,"ground":2637,"glen":2638,"py":2639,"roc":2640,"running":2641,"##ao":2642,"##pg":2643,"##mil":2644,"##ug":2645,"##dy":2646,"##ats":2647,"inf":2648,"##olic":2649,"pay":2650,"##ticol":2651,"##ouv":2652,"##maz":2653,"##eli":2654,"great":2655,"##iding":2656,"stylized":2657,"unfin":2658,"cybernetic":2659,"teeth":2660,"sub":2661,"creepy":2662,"vines":2663,"decora":2664,"##ared":2665,"spring":2666,"rainbow":2667,"silk":2668,"rockwell":2669,"##gged":2670,"norman":2671,"delic":2672,"multicol":2673,"##ological":2674,"energy":2675,"overgrown":2676,"spotlight":2677,"##aceship":2678,"explosion":2679,"unfinished":2680,"aut":2681,"bubble":2682,"easley":2683,"ho":2684,"ir":2685,"las":2686,"lyn":2687,"mer":2688,"nons":2689,"que":2690,"sense":2691,"vhs":2692,"wai":2693,"zab":2694,"##ey":2695,"##ham":2696,"##cant":2697,"rec":2698,"shark":2699,"massive":2700,"phot":2701,"##unction":2702,"##ptera":2703,"chiro":2704,"lip":2705,"##ensical":2706,"emma":2707,"simple":2708,"swirl":2709,"##ronic":2710,"ship":2711,"terror":2712,"mount":2713,"rugged":2714,"streets":2715,"collar":2716,"illusionistic":2717,"summil":2718,"fabric":2719,"scattering":2720,"finn":2721,"phili":2722,"cthulhu":2723,"monumental":2724,"material":2725,"lifeli":2726,"future":2727,"nonsensical":2728,"waist":2729,"chiroptera":2730,"summilux":2731,"lifelike":2732,"din":2733,"ec":2734,"gorge":2735,"kon":2736,"mush":2737,"pig":2738,"ram":2739,"ryd":2740,"yog":2741,"##iy":2742,"##cence":2743,"##alak":2744,"phys":2745,"##ided":2746,"##pera":2747,"digitial":2748,"##ader":2749,"illustrated":2750,"##ried":2751,"spe":2752,"magaz":2753,"##lent":2754,"redshi":2755,"##ible":2756,"##ppling":2757,"##awa":2758,"##painting":2759,"magician":2760,"furn":2761,"doom":2762,"dribble":2763,"afro":2764,"crystal":2765,"circuits":2766,"museum":2767,"##rocki":2768,"omnious":2769,"shaped":2770,"##ouveau":2771,"zabrocki":2772,"ryden":2773,"##iyoshi":2774,"magazine":2775,"redshift":2776,"],":2777,"ag":2778,"cour":2779,"eared":2780,"him":2781,"hay":2782,"lop":2783,"rim":2784,"tu":2785,"##ota":2786,"##pus":2787,"##ray":2788,"##oly":2789,"##usk":2790,"spider":2791,"leg":2792,"scien":2793,"!!!!":2794,"creatures":2795,"looks":2796,"##umei":2797,"crowd":2798,"andreas":2799,"jacob":2800,"viking":2801,"yuumei":2802,"catholic":2803,"pilot":2804,"watson":2805,"lipkin":2806,"gorgeous":2807,"fic":2808,"gou":2809,"good":2810,"has":2811,"lin":2812,"lace":2813,"litt":2814,"nouveau":2815,"pie":2816,"san":2817,"sara":2818,"tea":2819,"tenta":2820,"you":2821,"##ove":2822,"##cles":2823,"##kka":2824,"##olas":2825,"##esti":2826,"shutter":2827,"intense":2828,"flame":2829,"conceptual":2830,"speck":2831,"glam":2832,"##berg":2833,"cost":2834,"##aii":2835,"desert":2836,"##like":2837,"birt":2838,"bill":2839,"##agg":2840,"##engine":2841,"cris":2842,"surrealism":2843,"isometric":2844,"##nson":2845,"stippling":2846,"johnson":2847,"dancer":2848,"geom":2849,"stars":2850,"cryengine":2851,"dies":2852,"brad":2853,"multi":2854,"crystals":2855,"karl":2856,"shoulder":2857,"fairy":2858,"annie":2859,"galaxy":2860,"materials":2861,"mushroom":2862,"scientist":2863,"fiction":2864,"little":2865,"jura":2866,"russian":2867,"sand":2868,"##ae":2869,"##tr":2870,"##hra":2871,"##bet":2872,"##lejo":2873,"##ache":2874,"##usc":2875,"##urface":2876,"club":2877,"manusc":2878,"glitch":2879,"##graphic":2880,"##key":2881,"cybert":2882,"##shop":2883,"subs":2884,"iso":2885,"##inty":2886,"corgi":2887,"gerome":2888,"##icked":2889,"maxfield":2890,"fashioned":2891,"clothing":2892,"##board":2893,"dainty":2894,"mascot":2895,"vallejo":2896,"##ramid":2897,"symbol":2898,"silhouette":2899,"parrish":2900,"kitten":2901,"kawaii":2902,"pyramid":2903,"philipp":2904,"courbet":2905,"subsurface":2906,"die":2907,"dusk":2908,"er":2909,"fol":2910,"fast":2911,"gho":2912,"lit":2913,"ohra":2914,"pat":2915,"santa":2916,"tur":2917,"tomas":2918,"tears":2919,"##uct":2920,"##be":2921,"##nda":2922,"##aron":2923,"##ening":2924,"##ision":2925,"##ilian":2926,"##occh":2927,"##amel":2928,"##urg":2929,"chi":2930,"##getic":2931,"##oding":2932,"##adent":2933,"##iest":2934,"##ript":2935,"enamel":2936,"cinema":2937,"##hai":2938,"coat":2939,"crepus":2940,"science":2941,"priest":2942,"decadent":2943,"above":2944,"##sky":2945,"braided":2946,"biolumines":2947,"drips":2948,"kopera":2949,"noriyoshi":2950,"party":2951,"energetic":2952,"trump":2953,"strong":2954,"zeus":2955,"patterns":2956,"romantic":2957,"stanley":2958,"diesel":2959,"manuscript":2960,"cybertronic":2961,"ghost":2962,"ohrai":2963,"tomasz":2964,"crepuscular":2965,"az":2966,"amaz":2967,"cap":2968,"dr":2969,"dist":2970,"gille":2971,"hok":2972,"lan":2973,"ok":2974,"ori":2975,"pier":2976,"run":2977,"slim":2978,"tocch":2979,"wright":2980,"zorn":2981,"##sm":2982,"##tling":2983,"##hol":2984,"##nowski":2985,"##mp":2986,"##cre":2987,"##dt":2988,"##boss":2989,"##ersta":2990,"##onze":2991,"artur":2992,"##iture":2993,"##isy":2994,"##usai":2995,"eyck":2996,"level":2997,"leyd":2998,"unset":2999,"bronze":3000,"comb":3001,"teen":3002,"##shot":3003,"biersta":3004,"marta":3005,"dreamlike":3006,"adv":3007,"muscan":3008,"tomalak":3009,"walls":3010,"lovell":3011,"wooden":3012,"mihai":3013,"richard":3014,"clothes":3015,"gloom":3016,"elf":3017,"sheet":3018,"burning":3019,"animals":3020,"jewels":3021,"tarnowski":3022,"akira":3023,"##stein":3024,"escher":3025,"minimalistic":3026,"iridescent":3027,"portal":3028,"queen":3029,"furniture":3030,"glamour":3031,"dieselpunk":3032,"gilleard":3033,"hokusai":3034,"tocchini":3035,"leydy":3036,"unsettling":3037,"bierstadt":3038,"ash":3039,"awe":3040,"cul":3041,"cara":3042,"cell":3043,"egg":3044,"fle":3045,"ito":3046,"jan":3047,"jar":3048,"jim":3049,"jong":3050,"ka":3051,"lis":3052,"ros":3053,"rolf":3054,"sec":3055,"tape":3056,"zomb":3057,"zero":3058,"##otic":3059,"##gon":3060,"##onies":3061,"dem":3062,"##otte":3063,"##otches":3064,"painter":3065,"##irly":3066,"their":3067,"highdetailed":3068,"mad":3069,"main":3070,"colore":3071,"clo":3072,"albert":3073,"beach":3074,"##andy":3075,"oilpainting":3076,"peonies":3077,"biosh":3078,"mecha":3079,"joe":3080,"armour":3081,"armstr":3082,"caring":3083,"swe":3084,"swirly":3085,"splotches":3086,"geometric":3087,"]!!":3088,"terra":3089,"donald":3090,"junji":3091,"wavy":3092,"linework":3093,"##atters":3094,"frost":3095,"angry":3096,"chair":3097,"parts":3098,"melting":3099,"hieronymus":3100,"multicolor":3101,"gouache":3102,"tentacles":3103,"##estival":3104,"costume":3105,"geometrical":3106,"bioluminescent":3107,"oriental":3108,"cultist":3109,"coloreful":3110,"bioshock":3111,"armstrong":3112,"aaron":3113,"ber":3114,"but":3115,"dab":3116,"festival":3117,"gam":3118,"gens":3119,"kats":3120,"lak":3121,"lamp":3122,"vel":3123,"##rie":3124,"##ip":3125,"##oid":3126,"##pe":3127,"##lit":3128,"##zel":3129,"##zhin":3130,"##tack":3131,"##alt":3132,"##itz":3133,"##stock":3134,"##actic":3135,"##owed":3136,"##hei":3137,"rey":3138,"##utom":3139,"##lyph":3140,"one":3141,"anto":3142,"chrome":3143,"##ssic":3144,"glow":3145,"being":3146,"neo":3147,"##uda":3148,"##very":3149,"##ensen":3150,"critt":3151,"waterhouse":3152,"micro":3153,"adult":3154,"##uvism":3155,"distan":3156,"futurism":3157,"soph":3158,"mounts":3159,"heartstone":3160,"donut":3161,"worldboss":3162,"goggles":3163,"##box":3164,"pincus":3165,"fauvism":3166,"underw":3167,"foggy":3168,"bioluminis":3169,"jeffrey":3170,"sleeping":3171,"mothman":3172,"nihei":3173,"##hday":3174,"tsutom":3175,"satoshi":3176,"repin":3177,"grizz":3178,"eternal":3179,"##futurism":3180,"lynx":3181,"speed":3182,"pieta":3183,"sarazhin":3184,"birthday":3185,"okuda":3186,"lisa":3187,"genso":3188,"critters":3189,"pincushion":3190,"grizzly":3191,"cot":3192,"gric":3193,"il":3194,"jas":3195,"ky":3196,"lots":3197,"lines":3198,"mir":3199,"malf":3200,"orange":3201,"pot":3202,"ran":3203,"sin":3204,"tale":3205,"tiger":3206,"vill":3207,"zuz":3208,"##hiro":3209,"##yan":3210,"##cl":3211,"##fl":3212,"##fit":3213,"arts":3214,"dead":3215,"panda":3216,"##ett":3217,"step":3218,"##irde":3219,"highland":3220,"anag":3221,"##ase":3222,"##ims":3223,"##ardo":3224,"claw":3225,"##othoth":3226,"third":3227,"eyeb":3228,"leica":3229,"bride":3230,"stat":3231,"extra":3232,"##asso":3233,"renowed":3234,"sunny":3235,"proc":3236,"prop":3237,"##ghes":3238,"last":3239,"humanoid":3240,"outfit":3241,"weirde":3242,"police":3243,"charming":3244,"hughes":3245,"miyazaki":3246,"##rowa":3247,"elder":3248,"zoom":3249,"charlotte":3250,"bangles":3251,"mystical":3252,"victorian":3253,"##unctioning":3254,"hayao":3255,"painterly":3256,"dabrowa":3257,"bioluminiscence":3258,"malfunctioning":3259,"zuzanna":3260,"stepien":3261,"eyeball":3262,"weirdest":3263,"away":3264,"cer":3265,"dance":3266,"food":3267,"hard":3268,"houd":3269,"jay":3270,"mou":3271,"pile":3272,"riding":3273,"sus":3274,"sign":3275,"trop":3276,"ver":3277,"ww":3278,"wea":3279,"##emb":3280,"##ca":3281,"##ced":3282,"##cap":3283,"##ctive":3284,"##bite":3285,"##onz":3286,"##rel":3287,"##anch":3288,"##ics":3289,"##enstein":3290,"##eda":3291,"paper":3292,"##head":3293,"shape":3294,"##ets":3295,"strok":3296,"gree":3297,"##ope":3298,"spaceship":3299,"beer":3300,"##abora":3301,"magrit":3302,"loading":3303,"cool":3304,"##iano":3305,"##pses":3306,"##oratory":3307,"##ires":3308,"##mann":3309,"##izard":3310,"weeping":3311,"polish":3312,"braz":3313,"frankenstein":3314,"seen":3315,"panel":3316,"laboratory":3317,"melanch":3318,"layered":3319,"martin":3320,"lady":3321,"bernie":3322,"jurassic":3323,"piercing":3324,"frostbite":3325,"antoine":3326,"underwater":3327,"houdini":3328,"tropical":3329,"strokes":3330,"magritte":3331,"ara":3332,"agg":3333,"bel":3334,"bard":3335,"gand":3336,"hen":3337,"hall":3338,"jurg":3339,"na":3340,"nich":3341,"pond":3342,"piano":3343,"sou":3344,"tin":3345,"ven":3346,"##ring":3347,"##uhiro":3348,"##kel":3349,"##vagg":3350,"##res":3351,"##ising":3352,"ret":3353,"show":3354,"##ilt":3355,"contr":3356,"concre":3357,"intr":3358,"collage":3359,"##adin":3360,"##adas":3361,"spatters":3362,"having":3363,"hazel":3364,"smile":3365,"attack":3366,"frie":3367,"crusta":3368,"mean":3369,"##ova":3370,"marvel":3371,"boy":3372,"board":3373,"horse":3374,"corpses":3375,"devadas":3376,"termin":3377,"woods":3378,"dripping":3379,"throne":3380,"elabora":3381,"panicked":3382,"underground":3383,"gaussian":3384,"otomo":3385,"quarters":3386,"menu":3387,"nik":3388,"tarot":3389,"cabin":3390,"mandy":3391,"paladin":3392,"laugh":3393,"zhang":3394,"butterf":3395,"karlkka":3396,"amazing":3397,"wrightson":3398,"advent":3399,"secret":3400,"zombie":3401,"katsuhiro":3402,"velv":3403,"anaglyph":3404,"jayison":3405,"greeble":3406,"aggressive":3407,"jurgens":3408,"##vaggio":3409,"control":3410,"concrete":3411,"hazelnut":3412,"terminator":3413,"elaborate":3414,".,":3415,"bat":3416,"bed":3417,"bou":3418,"bus":3419,"brand":3420,"fade":3421,"gig":3422,"games":3423,"jen":3424,"kid":3425,"mature":3426,"mouse":3427,"nos":3428,"ron":3429,"ring":3430,"sora":3431,"sini":3432,"sothoth":3433,"tat":3434,"york":3435,"##ii":3436,"##mist":3437,"##cur":3438,"##ui":3439,"##din":3440,"##ding":3441,"##ville":3442,"##jime":3443,"##tis":3444,"##till":3445,"##ico":3446,"##orpg":3447,"##tions":3448,"##oll":3449,"##olate":3450,"##rich":3451,"##talg":3452,"contro":3453,"##ung":3454,"cham":3455,"hajime":3456,"colorfull":3457,"arstation":3458,"thick":3459,"uni":3460,"staff":3461,"##lipse":3462,"wars":3463,"cave":3464,"dramatically":3465,"noisy":3466,"##ills":3467,"marble":3468,"media":3469,"mmorpg":3470,"prod":3471,"forge":3472,"comput":3473,"doing":3474,"##coli":3475,"sword":3476,"myth":3477,"kehin":3478,"##attered":3479,"rule":3480,"factory":3481,"brain":3482,"helen":3483,"complexity":3484,"galactic":3485,"taking":3486,"singer":3487,"breast":3488,"christensen":3489,"##versial":3490,"powerful":3491,"brutal":3492,"blender":3493,"netfl":3494,"wiley":3495,"##ugu":3496,"delicate":3497,"irl":3498,"priestess":3499,"slimy":3500,"caravaggio":3501,"cloak":3502,"statue":3503,"melancholy":3504,"nostalg":3505,"sorayama":3506,"sinister":3507,"tatto":3508,"controversial":3509,"kehinde":3510,"netflix":3511,"aura":3512,"cad":3513,"dar":3514,"dwar":3515,"every":3516,"fried":3517,"kilian":3518,"mud":3519,"ner":3520,"nad":3521,"rac":3522,"riv":3523,"sold":3524,"silly":3525,"tes":3526,"tall":3527,"town":3528,"uhd":3529,"wash":3530,"wizard":3531,"yosh":3532,"##wood":3533,"##ev":3534,"##ross":3535,"##par":3536,"##mia":3537,"##lic":3538,"##ba":3539,"##glass":3540,"##fra":3541,"##fac":3542,"##ana":3543,"##orst":3544,"##edo":3545,"##oux":3546,"shiny":3547,"##ether":3548,"anatom":3549,"##ocut":3550,"##amic":3551,"##ashi":3552,"concer":3553,"##unch":3554,"child":3555,"flick":3556,"beard":3557,"moody":3558,"##able":3559,"who":3560,"whims":3561,"robotic":3562,"##ount":3563,"upper":3564,"grass":3565,"island":3566,"rene":3567,"sunlight":3568,"adam":3569,"##quar":3570,"cheap":3571,"geo":3572,"##ations":3573,"##ational":3574,"polaro":3575,"naturalism":3576,"imp":3577,"ferdin":3578,"picasso":3579,"buried":3580,"luis":3581,"delville":3582,"taken":3583,"quarter":3584,"workshop":3585,"sioux":3586,"charlie":3587,"bowater":3588,"embroidered":3589,"swirling":3590,"eclipse":3591,"legs":3592,"linocut":3593,"glitchy":3594,"romanticism":3595,"gloomy":3596,"lakota":3597,"jason":3598,"gandalf":3599,"nicholas":3600,"laughing":3601,"velvet":3602,"whimsical":3603,"polaroid":3604,"ferdinand":3605,"bri":3606,"cal":3607,"fel":3608,"gonz":3609,"hon":3610,"jos":3611,"lou":3612,"year":3613,"years":3614,"##side":3615,"##pocaly":3616,"##bon":3617,"##ław":3618,"##tapocaly":3619,"##leg":3620,"##rat":3621,"##rak":3622,"##ichi":3623,"##enment":3624,"dest":3625,"ince":3626,"##osed":3627,"##star":3628,"stub":3629,"##mail":3630,"##chhol":3631,"##ustration":3632,"enlight":3633,"haze":3634,"ali":3635,"ther":3636,"road":3637,"fruit":3638,"coils":3639,"##thorst":3640,"grace":3641,"##ovitz":3642,"vinci":3643,"##avers":3644,"insect":3645,"gerrit":3646,"carl":3647,"buchhol":3648,"growing":3649,"brightly":3650,"woodland":3651,"wheels":3652,"quint":3653,"fancy":3654,"screencap":3655,"hourglass":3656,"valley":3657,"artists":3658,"classical":3659,"postapocaly":3660,"caspar":3661,"anderson":3662,"alchemy":3663,"hoody":3664,"dinosa":3665,"mushrooms":3666,"distance":3667,"nikon":3668,"product":3669,"cadavers":3670,"friedrich":3671,"nadar":3672,"tesla":3673,"concert":3674,"gonzale":3675,"honthorst":3676,"enlightenment":3677,"buchholz":3678,"postapocalyptic":3679,"bott":3680,"dre":3681,"dom":3682,"egy":3683,"fren":3684,"ham":3685,"lam":3686,"lumin":3687,"malv":3688,"national":3689,"sor":3690,"some":3691,"##hen":3692,"##ped":3693,"##pack":3694,"##nova":3695,"##uch":3696,"##bore":3697,"##kins":3698,"##fall":3699,"##ject":3700,"##zen":3701,"##ined":3702,"android":3703,"##atin":3704,"off":3705,"inc":3706,"page":3707,"##uty":3708,"pole":3709,"stream":3710,"themed":3711,"mas":3712,"making":3713,"##maid":3714,"##oco":3715,"##astic":3716,"##une":3717,"##urn":3718,"##uring":3719,"intern":3720,"beams":3721,"beauty":3722,"gladi":3723,"leib":3724,"royo":3725,"##allow":3726,"backpack":3727,"##oglu":3728,"headshot":3729,"bib":3730,"raver":3731,"ornam":3732,"ismail":3733,"##ademia":3734,"##orary":3735,"armored":3736,"##rise":3737,"supernova":3738,"##lama":3739,"floor":3740,"assemb":3741,"fanbox":3742,"heavily":3743,"##ology":3744,"summer":3745,"organs":3746,"working":3747,"birds":3748,"scattered":3749,"wonderland":3750,"classic":3751,"diffusion":3752,"tori":3753,"rococo":3754,"decorated":3755,"laser":3756,"mermaid":3757,"afrofuturism":3758,"symbolism":3759,"kyoto":3760,"##kelmann":3761,"uniform":3762,"flickr":3763,"inceoglu":3764,"stubbs":3765,"graceful":3766,"gonzalez":3767,"french":3768,"malveda":3769,"ben":3770,"bath":3771,"brok":3772,"dry":3773,"lum":3774,"llama":3775,"oleg":3776,"press":3777,"patch":3778,"rat":3779,"russ":3780,"rubble":3781,"sol":3782,"sav":3783,"tv":3784,"wa":3785,"were":3786,"##so":3787,"##ros":3788,"##pec":3789,"##cil":3790,"##cast":3791,"##dient":3792,"##gen":3793,"##guer":3794,"##tish":3795,"##rac":3796,"dean":3797,"##olp":3798,"##edy":3799,"##tical":3800,"##oup":3801,"shallow":3802,"##ocolate":3803,"##ident":3804,"chick":3805,"chocolate":3806,"flag":3807,"##abeth":3808,"liu":3809,"trad":3810,"broth":3811,"froud":3812,"##terest":3813,"characters":3814,"cake":3815,"created":3816,"gradient":3817,"novel":3818,"waterfall":3819,"##ocious":3820,"overcast":3821,"scenery":3822,"adver":3823,"decol":3824,"group":3825,"devil":3826,"text":3827,"##lands":3828,"apex":3829,"diatom":3830,"facing":3831,"huang":3832,"buildings":3833,"pres":3834,"sticking":3835,"pinterest":3836,"perspec":3837,"knab":3838,"chaos":3839,"chains":3840,"techn":3841,"gaugu":3842,"scary":3843,"couch":3844,"couple":3845,"leonardo":3846,"open":3847,"jacobson":3848,"shutterstock":3849,"speckling":3850,"crisp":3851,"##smith":3852,"combat":3853,"ilustration":3854,"thirds":3855,"process":3856,"ceramic":3857,"butterfly":3858,"bouguer":3859,"breastplate":3860,"josan":3861,"internal":3862,"leibovitz":3863,"broken":3864,"perspective":3865,"bd":3866,"band":3867,"bak":3868,"cop":3869,"cines":3870,"candy":3871,"eliz":3872,"hol":3873,"lone":3874,"pu":3875,"ple":3876,"prip":3877,"ral":3878,"rib":3879,"sach":3880,"sna":3881,"ton":3882,"teng":3883,"us":3884,"vray":3885,"yo":3886,"##oby":3887,"##ping":3888,"##nown":3889,"##yat":3890,"##cz":3891,"##ucture":3892,"##ging":3893,"##vision":3894,"##ftian":3895,"##jun":3896,"##xel":3897,"##erie":3898,"##erry":3899,"##erich":3900,"##ndr":3901,"##ani":3902,"depic":3903,"inv":3904,"##tional":3905,"##hem":3906,"##oma":3907,"reach":3908,"reilly":3909,"reedy":3910,"shown":3911,"##oskeleton":3912,"stra":3913,"maiden":3914,"chub":3915,"cherry":3916,"##umn":3917,"scot":3918,"clay":3919,"foccus":3920,"argy":3921,"hyperbore":3922,"alice":3923,"glaz":3924,"lev":3925,"roerich":3926,"##apix":3927,"##nington":3928,"plastic":3929,"rainy":3930,"boots":3931,"herb":3932,"cityscape":3933,"fluid":3934,"drawn":3935,"##ized":3936,"about":3937,"contemp":3938,"##craftian":3939,"leaves":3940,"center":3941,"##aldo":3942,"lovely":3943,"lovecraftian":3944,"machin":3945,"weta":3946,"##erness":3947,"##pressive":3948,"mike":3949,"after":3950,"wilderness":3951,"##boy":3952,"label":3953,"singular":3954,"break":3955,"battlefield":3956,"pencil":3957,"pennington":3958,"samura":3959,"diffuse":3960,"pira":3961,"alchemist":3962,"embroidery":3963,"idol":3964,"shoes":3965,"shining":3966,"autumn":3967,"bubbles":3968,"agressive":3969,"tsutomu":3970,"mirror":3971,"potter":3972,"wwii":3973,"computer":3974,"brutalist":3975,"tattoo":3976,"felix":3977,"gladiola":3978,"lumen":3979,"adverti":3980,"cinestill":3981,"elizabeth":3982,"pripyat":3983,"ralph":3984,"sachin":3985,"reaching":3986,"chubby":3987,"argyle":3988,"contemporary":3989,"aud":3990,"bes":3991,"bro":3992,"cec":3993,"dire":3994,"duck":3995,"fir":3996,"ford":3997,"gta":3998,"gun":3999,"gent":4000,"hit":4001,"how":4002,"jing":4003,"jam":4004,"kun":4005,"kni":4006,"lot":4007,"late":4008,"near":4009,"nuc":4010,"path":4011,"rol":4012,"sel":4013,"sak":4014,"uf":4015,"##ef":4016,"##hog":4017,"##olet":4018,"##pre":4019,"##ned":4020,"##cled":4021,"##uk":4022,"##bi":4023,"##ged":4024,"##ved":4025,"##forest":4026,"##tag":4027,"##lear":4028,"##ites":4029,"##ston":4030,"##oring":4031,"reef":4032,"pock":4033,"##eling":4034,"##tals":4035,"##rix":4036,"closed":4037,"spi":4038,"blacksmith":4039,"alp":4040,"glov":4041,"nec":4042,"lob":4043,"cyan":4044,"##rylic":4045,"##scre":4046,"cook":4047,"exoskeleton":4048,"##ogue":4049,"##inking":4050,"teal":4051,"tendr":4052,"##aga":4053,"!!!!!":4054,"mickey":4055,"##paint":4056,"perform":4057,"force":4058,"danish":4059,"##hua":4060,"chef":4061,"artific":4062,"grunge":4063,"staring":4064,"starry":4065,"dirt":4066,"rainforest":4067,"sean":4068,"evening":4069,"octopus":4070,"voxel":4071,"planets":4072,"##inesque":4073,"animated":4074,"psychological":4075,"gustav":4076,"luc":4077,"acrylic":4078,"specta":4079,"borderlands":4080,"##uzz":4081,"sunglass":4082,"##incate":4083,"setting":4084,"cables":4085,"##stem":4086,"##yuki":4087,"nicolet":4088,"obama":4089,"bruce":4090,"lostfish":4091,"ashley":4092,"roses":4093,"zoomed":4094,"weap":4095,"arab":4096,"intrincate":4097,"chamber":4098,"thermal":4099,"toriyama":4100,"gauguinesque":4101,"##obyl":4102,"straight":4103,"levita":4104,"samurai":4105,"pirate":4106,"ceccoli":4107,"knife":4108,"nuclear":4109,"gloves":4110,"tendrils":4111,"sunglasses":4112,"nicoletta":4113,"),":4114,"app":4115,"bit":4116,"bul":4117,"bum":4118,"betta":4119,"civ":4120,"coding":4121,"doc":4122,"eerie":4123,"fu":4124,"fit":4125,"gro":4126,"hr":4127,"hed":4128,"holo":4129,"jones":4130,"kl":4131,"kiss":4132,"lant":4133,"myazaki":4134,"rust":4135,"tones":4136,"tilt":4137,"vr":4138,"vime":4139,"vogue":4140,"yoro":4141,"##top":4142,"##oot":4143,"##nan":4144,"##mes":4145,"##ces":4146,"##core":4147,"##do":4148,"##goth":4149,"##girl":4150,"##known":4151,"##fer":4152,"##inea":4153,"##tiz":4154,"##rade":4155,"##sto":4156,"##ori":4157,"byron":4158,"pabl":4159,"##omon":4160,"showing":4161,"only":4162,"##ilia":4163,"ans":4164,"##chard":4165,"##asing":4166,"##phone":4167,"unknown":4168,"winkelmann":4169,"ath":4170,"mort":4171,"train":4172,"##oggoth":4173,"petals":4174,"pixel":4175,"nort":4176,"mex":4177,"orc":4178,"##pasto":4179,"sunrise":4180,"adrian":4181,"decor":4182,"crazy":4183,"dota":4184,"shift":4185,"franz":4186,"bloodied":4187,"woodbl":4188,"dragan":4189,"aesthetically":4190,"impasto":4191,"sever":4192,"borber":4193,"illuminated":4194,"ferrell":4195,"ferocious":4196,"guinea":4197,"##lsen":4198,"sidefx":4199,"structure":4200,"hilma":4201,"fabry":4202,"posing":4203,"beasts":4204,"ballet":4205,"pattern":4206,"expressionism":4207,"albedo":4208,"dimens":4209,"glenn":4210,"photosh":4211,"physics":4212,"philippine":4213,"signs":4214,"adventure":4215,"incred":4216,"bibin":4217,"processing":4218,"pleasing":4219,"gentle":4220,"spectacular":4221,"civil":4222,"klint":4223,"rusty":4224,"vimeo":4225,"pablo":4226,"woodblock":4227,"biden":4228,"coc":4229,"dio":4230,"gel":4231,"gab":4232,"ital":4233,"irak":4234,"lus":4235,"law":4236,"lond":4237,"ny":4238,"not":4239,"noc":4240,"pea":4241,"rick":4242,"ryan":4243,"rising":4244,"ted":4245,"utag":4246,"var":4247,"vast":4248,"your":4249,"##hl":4250,"##lish":4251,"##cis":4252,"##der":4253,"##gni":4254,"##zan":4255,"##ndam":4256,"##rama":4257,"##arian":4258,"##aton":4259,"##ors":4260,"##oty":4261,"##olita":4262,"shir":4263,"shup":4264,"paintings":4265,"ster":4266,"anton":4267,"blader":4268,"##amoto":4269,"##amond":4270,"##photo":4271,"##unner":4272,"##gehog":4273,"##cted":4274,"##synth":4275,"##sson":4276,"thoma":4277,"##haus":4278,"##hair":4279,"##andra":4280,"stage":4281,"stains":4282,"darksynth":4283,"coe":4284,"cogni":4285,"robust":4286,"##liak":4287,"creating":4288,"##ranch":4289,"designs":4290,"cgi":4291,"asian":4292,"cats":4293,"edm":4294,"##pped":4295,"hernan":4296,"!!!!!!!":4297,"##itional":4298,"##ubon":4299,"arms":4300,"sims":4301,"adolp":4302,"trip":4303,"barb":4304,"gem":4305,"frames":4306,"francis":4307,"jacked":4308,"transform":4309,"diamond":4310,"glasses":4311,"vibes":4312,"blanchard":4313,"saber":4314,"harry":4315,"jesus":4316,"steir":4317,"gundam":4318,"astro":4319,"##rowave":4320,"exploring":4321,"mccur":4322,"squir":4323,"single":4324,"yoshiyuki":4325,"scarlet":4326,"slime":4327,"silent":4328,"shoulders":4329,"hellish":4330,"megapix":4331,"rocha":4332,"hole":4333,"finnstar":4334,"kata":4335,"demons":4336,"cottage":4337,"extrater":4338,"mouth":4339,"retrowave":4340,"fadeev":4341,"nostalgia":4342,"dinosaur":4343,"bottle":4344,"traditional":4345,"ribbon":4346,"lobster":4347,"hedgehog":4348,"holographic":4349,"##tized":4350,"diorama":4351,"italian":4352,"irakli":4353,"london":4354,"noct":4355,"utagawa":4356,"shupliak":4357,"bladerunner":4358,"cognitive":4359,"adolphe":4360,"mccurry":4361,"finnstark":4362,",.":4363,"age":4364,"bay":4365,"bunk":4366,"cac":4367,"cup":4368,"dway":4369,"east":4370,"fat":4371,"gn":4372,"gob":4373,"hom":4374,"had":4375,"its":4376,"jum":4377,"lolita":4378,"mr":4379,"miss":4380,"rose":4381,"solo":4382,"ten":4383,"team":4384,"vul":4385,"wires":4386,"yama":4387,"##ah":4388,"##world":4389,"##wolf":4390,"##har":4391,"##iti":4392,"##iel":4393,"##of":4394,"##oke":4395,"##port":4396,"##nce":4397,"##mar":4398,"##ying":4399,"##yman":4400,"##count":4401,"##bre":4402,"##tale":4403,"##tato":4404,"##ras":4405,"##alay":4406,"##alth":4407,"##enti":4408,"##othe":4409,"parad":4410,"reb":4411,"shav":4412,"shattered":4413,"shoggoth":4414,"potato":4415,"##irn":4416,"conf":4417,"##imp":4418,"##opunk":4419,"##tractive":4420,"roger":4421,"beat":4422,"attractive":4423,"brid":4424,"##terior":4425,"coffe":4426,"exterior":4427,"##ments":4428,"desk":4429,"##shar":4430,"warning":4431,"cairn":4432,"peace":4433,"system":4434,"plate":4435,"##urated":4436,"boat":4437,"horrified":4438,"petros":4439,"nightvision":4440,"bug":4441,"aleks":4442,"moonlit":4443,"shinkawa":4444,"apples":4445,"walter":4446,"miura":4447,"saint":4448,"clothed":4449,"driving":4450,"rocks":4451,"afshar":4452,"##gging":4453,"tavern":4454,"heaven":4455,"veins":4456,"##zeta":4457,"impressionist":4458,"scarf":4459,"alexander":4460,"astronauts":4461,"eldrad":4462,"wonderful":4463,"harrison":4464,"server":4465,"mandel":4466,"dimly":4467,"cezan":4468,"himalay":4469,"tuyman":4470,"fairytale":4471,"philippe":4472,"##bee":4473,"teenage":4474,"ranger":4475,"claws":4476,"hallway":4477,"controller":4478,"yoshida":4479,"##frame":4480,"anatomical":4481,"werewolf":4482,"decollage":4483,"diatoms":4484,"present":4485,"bouguereau":4486,"snake":4487,"yoji":4488,"singularity":4489,"self":4490,"weapon":4491,"kissing":4492,"incredible":4493,"civiliz":4494,"teddy":4495,"squirrel":4496,"bunker":4497,"dwayne":4498,"jumps":4499,"coffee":4500,"cezanne":4501,"himalayan":4502,"tuymans":4503,"av":4504,"ate":4505,"bom":4506,"boun":4507,"fuz":4508,"gha":4509,"gills":4510,"hal":4511,"hang":4512,"ide":4513,"kenta":4514,"kage":4515,"lether":4516,"met":4517,"num":4518,"rit":4519,"rise":4520,"sig":4521,"six":4522,"tow":4523,"tron":4524,"tita":4525,"vers":4526,"wom":4527,"worm":4528,"yan":4529,"##sen":4530,"##ake":4531,"##wal":4532,"##ique":4533,"##oire":4534,"##line":4535,"##und":4536,"##uma":4537,"##uous":4538,"##ulent":4539,"##fed":4540,"##xt":4541,"##🚬🚬":4542,"##any":4543,"##anut":4544,"##aling":4545,"##ito":4546,"##ates":4547,"def":4548,"death":4549,"##isite":4550,"##hell":4551,"read":4552,"reading":4553,"##usader":4554,"##lys":4555,"##osis":4556,"poke":4557,"##inecant":4558,"##ilan":4559,"##ility":4560,"anato":4561,"##chid":4562,"##amune":4563,"##uri":4564,"chern":4565,"clown":4566,"spell":4567,"focal":4568,"##hiko":4569,"lee":4570,"bell":4571,"behem":4572,"##hern":4573,"smoking":4574,"exqu":4575,"expressive":4576,"tele":4577,"goldfish":4578,"##ores":4579,"##oresc":4580,"emily":4581,"peanut":4582,"gras":4583,"crusader":4584,"filled":4585,"mech":4586,"orchid":4587,"##ellar":4588,"##lights":4589,"##blebee":4590,"simkins":4591,"form":4592,"formal":4593,"carving":4594,"cheese":4595,"##fined":4596,"abs":4597,"swar":4598,"gek":4599,"##cious":4600,"myst":4601,"fenghua":4602,"##itary":4603,"textured":4604,"residen":4605,"hugging":4606,"horrors":4607,"riot":4608,"raining":4609,"see":4610,"bioluminecant":4611,"rocket":4612,"ellen":4613,"asset":4614,"hew":4615,"panora":4616,"misty":4617,"mcquar":4618,"lux":4619,"vision":4620,"paris":4621,"jewett":4622,"crossing":4623,"airbrush":4624,"akiya":4625,"hunter":4626,"symbios":4627,"spiritual":4628,"##yuan":4629,"griff":4630,"object":4631,"zhong":4632,"silkscre":4633,"photomon":4634,"finnish":4635,"physique":4636,"lange":4637,"eggs":4638,"sophie":4639,"##restial":4640,"crustacean":4641,"cloaked":4642,"dwarf":4643,"british":4644,"aliens":4645,"luminescent":4646,"sorcer":4647,"masamune":4648,"ornament":4649,"assemblage":4650,"liuyuan":4651,"lonely":4652,"audubon":4653,"pockets":4654,"bumblebee":4655,"mexico":4656,"franzzeta":4657,"photoshoot":4658,"gelatin":4659,"shirow":4660,"sterile":4661,"##photography":4662,"astrophotography":4663,"megapixels":4664,"extraterrestial":4665,"paradise":4666,"atey":4667,"bombs":4668,"fuzzy":4669,"ghailan":4670,"idealistic":4671,"kentaro":4672,"kageichi":4673,"ritual":4674,"chernobyl":4675,"behemoth":4676,"exquisite":4677,"residential":4678,"mcquarrie":4679,"silkscreen":4680,"photomontage":4681,"aby":4682,"boss":4683,"dol":4684,"dut":4685,"during":4686,"eur":4687,"efe":4688,"elys":4689,"fami":4690,"funny":4691,"gum":4692,"ghen":4693,"mos":4694,"nick":4695,"nuzz":4696,"olsen":4697,"pine":4698,"right":4699,"tum":4700,"tog":4701,"was":4702,"west":4703,"yose":4704,"##ters":4705,"##ean":4706,"##emon":4707,"##ril":4708,"##iff":4709,"##nes":4710,"##moto":4711,"##mite":4712,"##mber":4713,"##lo":4714,"##lay":4715,"##cke":4716,"##dly":4717,"##body":4718,"##van":4719,"##ndly":4720,"##time":4721,"##lean":4722,"##rared":4723,"##antic":4724,"##storm":4725,"##oric":4726,"##ortion":4727,"##academia":4728,"pages":4729,"resting":4730,"refined":4731,"##eak":4732,"shib":4733,"##osing":4734,"##stance":4735,"##ulfed":4736,"stock":4737,"straw":4738,"##mas":4739,"##mart":4740,"##och":4741,"phone":4742,"##assy":4743,"##asure":4744,"##phant":4745,"##phones":4746,"##enton":4747,"chan":4748,"chie":4749,"##opard":4750,"treasure":4751,"##geta":4752,"flames":4753,"flare":4754,"have":4755,"##ssio":4756,"##tec":4757,"alley":4758,"##arke":4759,"leopard":4760,"##berto":4761,"nest":4762,"next":4763,"trag":4764,"trauma":4765,"brun":4766,"stands":4767,"darkacademia":4768,"ultrash":4769,"enguer":4770,"engulfed":4771,"comm":4772,"coming":4773,"exhib":4774,"headphones":4775,"cavern":4776,"creeping":4777,"redhead":4778,"##lett":4779,"noah":4780,"##insky":4781,"##ovsky":4782,"joy":4783,"proud":4784,"##play":4785,"adolf":4786,"crash":4787,"dispers":4788,"cheek":4789,"artifac":4790,"alessio":4791,"##adsads":4792,"scales":4793,"walker":4794,"charles":4795,"satan":4796,"cloudy":4797,"skulls":4798,"afric":4799,"elven":4800,"height":4801,"##ekai":4802,"shadowy":4803,"guita":4804,"heroes":4805,"vegeta":4806,"exploding":4807,"office":4808,"squid":4809,"quarton":4810,"jewel":4811,"airpl":4812,"karcz":4813,"christmas":4814,"albi":4815,"thunderstorm":4816,"military":4817,"nicola":4818,"cube":4819,"stormy":4820,"infrared":4821,"jacobean":4822,"specks":4823,"bradley":4824,"pyramids":4825,"aztec":4826,"distortion":4827,"sweating":4828,"terragen":4829,"sustain":4830,"belts":4831,"henri":4832,"souls":4833,"friendly":4834,"bedroom":4835,"gigantic":4836,"geographic":4837,"destro":4838,"puppy":4839,"scotland":4840,"hyperborea":4841,"jamie":4842,"alpay":4843,"groot":4844,"northern":4845,"gentleman":4846,"edmund":4847,"katauri":4848,"goblin":4849,"yamamoto":4850,"beatrix":4851,"aleksandra":4852,"defense":4853,"pokemon":4854,"##orescent":4855,"bombshell":4856,"abyss":4857,"family":4858,"gummy":4859,"ghenie":4860,"yosemite":4861,"traumatized":4862,"ultrasharp":4863,"enguerrand":4864,"dispersion":4865,"ax":4866,"aard":4867,"bac":4868,"bil":4869,"bric":4870,"bad":4871,"cere":4872,"cape":4873,"end":4874,"eica":4875,"funk":4876,"fara":4877,"fbi":4878,"gates":4879,"hue":4880,"hass":4881,"iss":4882,"jess":4883,"kell":4884,"mall":4885,"non":4886,"nud":4887,"pul":4888,"pear":4889,"pup":4890,"piz":4891,"rig":4892,"rot":4893,"rub":4894,"rpg":4895,"tai":4896,"tub":4897,"uv":4898,"vor":4899,"whi":4900,"##aun":4901,"##ative":4902,"##win":4903,"##iers":4904,"##nold":4905,"##mond":4906,"##yc":4907,"##yed":4908,"##case":4909,"##don":4910,"##den":4911,"##dom":4912,"##gin":4913,"##vous":4914,"##ju":4915,"##ximalist":4916,"##ndo":4917,"##tiv":4918,"##ala":4919,"##alski":4920,"##allen":4921,"##iting":4922,"##atron":4923,"##ateau":4924,"##ols":4925,"##olight":4926,"##edish":4927,"paolo":4928,"##tices":4929,"##het":4930,"relu":4931,"shim":4932,"shale":4933,"shaun":4934,"##osus":4935,"poign":4936,"stri":4937,"store":4938,"##mation":4939,"##maximalist":4940,"##ched":4941,"phanta":4942,"##urch":4943,"##nected":4944,"chateau":4945,"church":4946,"##umm":4947,"scumm":4948,"##riel":4949,"hyung":4950,"classy":4951,"spag":4952,"spatter":4953,"haeck":4954,"arnold":4955,"hypermaximalist":4956,"left":4957,"list":4958,"lily":4959,"elephant":4960,"femin":4961,"feeling":4962,"darkwar":4963,"##ogen":4964,"mural":4965,"##lenci":4966,"warham":4967,"warframe":4968,"headset":4969,"##ishing":4970,"biolight":4971,"synt":4972,"designed":4973,"tort":4974,"##ibranch":4975,"mario":4976,"box":4977,"miche":4978,"##isticated":4979,"dresses":4980,"promo":4981,"mona":4982,"fluida":4983,"finely":4984,"swim":4985,"swamp":4986,"swedish":4987,"outside":4988,"balenci":4989,"bloodbor":4990,"##stica":4991,"aliena":4992,"##ecca":4993,"##lestial":4994,"streak":4995,"sprites":4996,"twist":4997,"collosus":4998,"tae":4999,"##bulb":5000,"burg":5001,"ciri":5002,"takato":5003,"andrew":5004,"##uctive":5005,"going":5006,"jacen":5007,"polycount":5008,"farm":5009,"fisher":5010,"immense":5011,"seren":5012,"samori":5013,"sadamoto":5014,"mila":5015,"fallout":5016,"identi":5017,"##futuristic":5018,"celestial":5019,"megatron":5020,"shinning":5021,"otherworld":5022,"substance":5023,"multivers":5024,"gaming":5025,"sophisticated":5026,"village":5027,"props":5028,"brazil":5029,"friends":5030,"jenny":5031,"nervous":5032,"soldier":5033,"imposing":5034,"called":5035,"egypt":5036,"saville":5037,"brothers":5038,"copper":5039,"glazed":5040,"advertise":5041,"kunis":5042,"ufo":5043,"performing":5044,"artificia":5045,"dimension":5046,"tripod":5047,"transformers":5048,"rebecca":5049,"confident":5050,"rocksalt":5051,"selfie":5052,"bounty":5053,"grassy":5054,"hewlett":5055,"symbiosi":5056,"elysian":5057,"tragic":5058,"brunette":5059,"african":5060,"guitar":5061,"aardman":5062,"bacon":5063,"kelly":5064,"nudibranch":5065,"pupils":5066,"pizza":5067,"rigney":5068,"vortices":5069,"relucant":5070,"poignant":5071,"phantastica":5072,"haeckel":5073,"feminine":5074,"warhammer":5075,"balenciaga":5076,"bloodborne":5077,"otherworldly":5078,"aqu":5079,"aga":5080,"bold":5081,"bara":5082,"cia":5083,"du":5084,"daz":5085,"ek":5086,"each":5087,"fenton":5088,"gaz":5089,"ish":5090,"kai":5091,"lap":5092,"lilia":5093,"mot":5094,"mill":5095,"moll":5096,"pack":5097,"pure":5098,"rou":5099,"race":5100,"rhi":5101,"rand":5102,"sz":5103,"sed":5104,"stal":5105,"smart":5106,"tiss":5107,"using":5108,"vit":5109,"vess":5110,"vort":5111,"vase":5112,"wing":5113,"wre":5114,"wit":5115,"wine":5116,"weld":5117,"wax":5118,"zip":5119,"##tus":5120,"##eg":5121,"##romorphic":5122,"##iac":5123,"##iper":5124,"##iles":5125,"##ole":5126,"##ois":5127,"##pop":5128,"##paceship":5129,"##nst":5130,"##men":5131,"##mish":5132,"##lle":5133,"##lock":5134,"##bing":5135,"##ben":5136,"##bones":5137,"##va":5138,"##vy":5139,"##fast":5140,"##zar":5141,"##iness":5142,"##onut":5143,"##tar":5144,"##tache":5145,"##ndra":5146,"##tif":5147,"##rek":5148,"##render":5149,"##iton":5150,"deak":5151,"##isk":5152,"##isław":5153,"##ows":5154,"##esis":5155,"##heet":5156,"##llo":5157,"shrek":5158,"##ustic":5159,"pod":5160,"poots":5161,"potions":5162,"##ilight":5163,"they":5164,"blade":5165,"##ela":5166,"##imed":5167,"##iths":5168,"##una":5169,"##urie":5170,"##ptop":5171,"rutger":5172,"enter":5173,"clarke":5174,"spo":5175,"spark":5176,"hauer":5177,"manu":5178,"roots":5179,"roberto":5180,"atlan":5181,"##ability":5182,"##hero":5183,"backround":5184,"##rying":5185,"##arado":5186,"coo":5187,"##thing":5188,"desire":5189,"testing":5190,"sui":5191,"biopunk":5192,"graff":5193,"asp":5194,"noon":5195,"raytra":5196,"edges":5197,"fully":5198,"surface":5199,"##achrome":5200,"horri":5201,"corre":5202,"corben":5203,"sunb":5204,"dreams":5205,"laurie":5206,"laptop":5207,"geralt":5208,"fluorescent":5209,"simul":5210,"simps":5211,"##rence":5212,"craft":5213,"daniel":5214,"mustache":5215,"vicious":5216,"carne":5217,"##yake":5218,"leading":5219,"superhero":5220,"centric":5221,"grin":5222,"base":5223,"##weiz":5224,"##lain":5225,"##laimed":5226,"faces":5227,"amuse":5228,"##lines":5229,"curves":5230,"imogen":5231,"miyake":5232,"anthromorphic":5233,"legend":5234,"retrofuturistic":5235,"twin":5236,"twilight":5237,"pred":5238,"frozen":5239,"guy":5240,"guweiz":5241,"shell":5242,"kodachrome":5243,"veg":5244,"giraud":5245,"earring":5246,"##lowed":5247,"zdzisław":5248,"snowy":5249,"demonic":5250,"##rams":5251,"circuit":5252,"elden":5253,"alvarado":5254,"govern":5255,"poses":5256,"casey":5257,"farmer":5258,"urban":5259,"timeless":5260,"stanisław":5261,"grimoire":5262,"hieronymous":5263,"genesis":5264,"lasers":5265,"reclaimed":5266,"swirls":5267,"dribbles":5268,"tundra":5269,"!!!!,":5270,"billowing":5271,"ernst":5272,"patina":5273,"turqu":5274,"drinking":5275,"flemish":5276,"cotton":5277,"villain":5278,"mythological":5279,"everything":5280,"soldiers":5281,"adams":5282,"louis":5283,"louise":5284,"doming":5285,"bathroom":5286,"machinery":5287,"breakfast":5288,"mirrors":5289,"hitler":5290,"jingna":5291,"latex":5292,"##ukalski":5293,"!!!!!!":5294,"dirty":5295,"ansel":5296,"several":5297,"coconut":5298,"lawrence":5299,"cactus":5300,"women":5301,"swarming":5302,"sorcerer":5303,"dutch":5304,"crashed":5305,"issey":5306,"jessica":5307,"tubes":5308,"synthetic":5309,"swimming":5310,"spritesheet":5311,"burgess":5312,"ishida":5313,"mollis":5314,"rhiz":5315,"szukalski":5316,"tissot":5317,"vortex":5318,"weldon":5319,"zippers":5320,"atlantis":5321,"amusement":5322,"government":5323,"*,":5324,"aw":5325,"act":5326,"bone":5327,"bale":5328,"bones":5329,"carp":5330,"cock":5331,"dism":5332,"ell":5333,"equ":5334,"fum":5335,"four":5336,"fort":5337,"fang":5338,"get":5339,"gott":5340,"iron":5341,"jed":5342,"jul":5343,"ki":5344,"kish":5345,"lav":5346,"mol":5347,"mine":5348,"null":5349,"oss":5350,"prac":5351,"rap":5352,"ryu":5353,"randy":5354,"sized":5355,"tun":5356,"tight":5357,"tade":5358,"tower":5359,"tires":5360,"uw":5361,"vas":5362,"watch":5363,"yen":5364,"🏴☠":5365,"##wear":5366,"##hal":5367,"##hed":5368,"##oom":5369,"##ograph":5370,"##oise":5371,"##pel":5372,"##pire":5373,"##nwe":5374,"##yon":5375,"##crow":5376,"##uction":5377,"##urant":5378,"##bess":5379,"##brian":5380,"##blad":5381,"##gian":5382,"##kini":5383,"##fried":5384,"##xy":5385,"##erns":5386,"##tach":5387,"##taurant":5388,"##ington":5389,"##icz":5390,"##ices":5391,"##sters":5392,"reg":5393,"reve":5394,"reme":5395,"recy":5396,"shr":5397,"sham":5398,"##ute":5399,"##uth":5400,"##ete":5401,"poppy":5402,"highlights":5403,"maui":5404,"##mare":5405,"anam":5406,"anoth":5407,"block":5408,"bloom":5409,"##elance":5410,"phi":5411,"##pher":5412,"##phan":5413,"##urdly":5414,"cheng":5415,"##ctos":5416,"gregory":5417,"scott":5418,"enki":5419,"clock":5420,"hazy":5421,"lightpaint":5422,"alma":5423,"thor":5424,"there":5425,"occ":5426,"##uez":5427,"##unkka":5428,"bean":5429,"atom":5430,"motif":5431,"neoc":5432,"liba":5433,"lore":5434,"britt":5435,"stand":5436,"start":5437,"darkness":5438,"hairy":5439,"##oks":5440,"##oko":5441,"skate":5442,"mug":5443,"robb":5444,"##ignon":5445,"emper":5446,"empress":5447,"empire":5448,"sund":5449,"cage":5450,"bikini":5451,"crew":5452,"creative":5453,"upright":5454,"plum":5455,"plump":5456,"meat":5457,"raw":5458,"##cents":5459,"##iage":5460,"mary":5461,"marling":5462,"overhead":5463,"surge":5464,"johan":5465,"johanna":5466,"german":5467,"craw":5468,"furry":5469,"forces":5470,"company":5471,"carrac":5472,"carved":5473,"split":5474,"central":5475,"woodcut":5476,"weather":5477,"apple":5478,"##yohara":5479,"diag":5480,"drawings":5481,"##ska":5482,"walk":5483,"type":5484,"##orphic":5485,"restaurant":5486,"hope":5487,"curly":5488,"curtains":5489,"covering":5490,"sexy":5491,"beksinsky":5492,"sail":5493,"suits":5494,"harmon":5495,"##nah":5496,"cambrian":5497,"bagels":5498,"tama":5499,"ferns":5500,"helnwe":5501,"guay":5502,"psycho":5503,"heroic":5504,"dahl":5505,"##rowth":5506,"explod":5507,"mcbess":5508,"acc":5509,"accents":5510,"hotel":5511,"visible":5512,"hannah":5513,"triton":5514,"slee":5515,"sleek":5516,"struz":5517,"witcher":5518,"##blr":5519,"goya":5520,"criminal":5521,"univers":5522,"vik":5523,"hills":5524,"junglepunk":5525,"overgrowth":5526,"minimalism":5527,"freas":5528,"freelance":5529,"dogs":5530,"laying":5531,"martine":5532,"striped":5533,"delicious":5534,"sanctos":5535,"multiple":5536,"foliage":5537,"lanky":5538,"terrace":5539,"elderly":5540,"sushi":5541,"##opean":5542,"soul":5543,"washington":5544,"adamus":5545,"drew":5546,"solid":5547,"waiting":5548,"textless":5549,"beside":5550,"cookery":5551,"doctor":5552,"fuji":5553,"lanterns":5554,"luscious":5555,"peaks":5556,"##hausen":5557,"harryhausen":5558,"noctum":5559,"bridge":5560,"peaceful":5561,"anatomically":5562,"number":5563,"worms":5564,"yanjun":5565,"##walk":5566,"spells":5567,"absurdly":5568,"luxury":5569,"griffiths":5570,"european":5571,"tumblr":5572,"##mbering":5573,"cheekbones":5574,"jewelry":5575,"bilal":5576,"faraut":5577,"pearl":5578,"spaghet":5579,"promotional":5580,"twisted":5581,"aqua":5582,"ektach":5583,"seductive":5584,"manufac":5585,"graffiti":5586,"sunbeam":5587,"simulation":5588,"predator":5589,"dominguez":5590,"fumo":5591,"gottfried":5592,"jedi":5593,"kiyohara":5594,"tadema":5595,"uwu":5596,"remembering":5597,"recycled":5598,"anamorphic":5599,"another":5600,"libati":5601,"helnwein":5602,"ektachrome":5603,"aiz":5604,"ago":5605,"aoi":5606,"aquar":5607,"cro":5608,"dnd":5609,"dul":5610,"dere":5611,"dora":5612,"fred":5613,"ged":5614,"gos":5615,"gear":5616,"hul":5617,"hous":5618,"ju":5619,"jin":5620,"jet":5621,"jad":5622,"junk":5623,"jord":5624,"jake":5625,"mistic":5626,"mills":5627,"nel":5628,"nam":5629,"norm":5630,"oga":5631,"pant":5632,"peng":5633,"pbr":5634,"rag":5635,"stai":5636,"sien":5637,"tro":5638,"tone":5639,"tux":5640,"umb":5641,"vir":5642,"wr":5643,"wis":5644,"walis":5645,"zen":5646,"zaw":5647,"zana":5648,"🤳🦊":5649,"##ael":5650,"##wska":5651,"##ika":5652,"##otage":5653,"##pit":5654,"##ptian":5655,"##mit":5656,"##mph":5657,"##cting":5658,"##cos":5659,"##dam":5660,"##dson":5661,"##band":5662,"##ball":5663,"##vill":5664,"##zo":5665,"##zki":5666,"##iner":5667,"##onic":5668,"##onto":5669,"##onick":5670,"##inger":5671,"##til":5672,"##rton":5673,"##ratic":5674,"##raling":5675,"##anations":5676,"##igo":5677,"andy":5678,"deity":5679,"dehar":5680,"##sty":5681,"##stus":5682,"##strom":5683,"##stellar":5684,"inu":5685,"ing":5686,"incant":5687,"##org":5688,"##otto":5689,"##tails":5690,"##olis":5691,"##edral":5692,"pasta":5693,"##hez":5694,"##hestus":5695,"realist":5696,"##usual":5697,"##ushez":5698,"##inem":5699,"mayan":5700,"anna":5701,"##rical":5702,"bloss":5703,"blushez":5704,"##imb":5705,"##imich":5706,"greasley":5707,"##idden":5708,"##kie":5709,"coloss":5710,"colani":5711,"##perate":5712,"##nefer":5713,"##adzki":5714,"##utia":5715,"intricately":5716,"flore":5717,"scand":5718,"scler":5719,"clint":5720,"##aying":5721,"fantastic":5722,"spect":5723,"haw":5724,"haun":5725,"haep":5726,"##sseau":5727,"alps":5728,"this":5729,"though":5730,"occl":5731,"manly":5732,"eyed":5733,"eytan":5734,"lebr":5735,"lepre":5736,"unity":5737,"unusual":5738,"most":5739,"nend":5740,"neural":5741,"##udy":5742,"##udd":5743,"magn":5744,"tray":5745,"traced":5746,"stag":5747,"##ckles":5748,"few":5749,"feet":5750,"english":5751,"##oky":5752,"core":5753,"when":5754,"##ects":5755,"##chaun":5756,"emanations":5757,"eminem":5758,"supre":5759,"cafe":5760,"creation":5761,"jeong":5762,"flowy":5763,"designer":5764,"grave":5765,"filip":5766,"mechan":5767,"##ibale":5768,"edv":5769,"fullbody":5770,"mars":5771,"matt":5772,"##avian":5773,"corcos":5774,"matteo":5775,"pron":5776,"extrem":5777,"monkey":5778,"monsters":5779,"gods":5780,"cann":5781,"canon":5782,"canal":5783,"canyon":5784,"##tured":5785,"##torio":5786,"vice":5787,"nightmare":5788,"perfectly":5789,"disc":5790,"trippy":5791,"swi":5792,"burton":5793,"gems":5794,"ships":5795,"##fication":5796,"moonlight":5797,"weigh":5798,"minutia":5799,"ruins":5800,"architect":5801,"##itation":5802,"##wegian":5803,"among":5804,"streetwear":5805,"curvy":5806,"modest":5807,"sele":5808,"mik":5809,"quant":5810,"anthro":5811,"##ursive":5812,"##angel":5813,"##azs":5814,"balloon":5815,"throwing":5816,"interstellar":5817,"cosplay":5818,"steel":5819,"aug":5820,"snowing":5821,"frontal":5822,"dama":5823,"dungeon":5824,"##zewska":5825,"norwegian":5826,"##roma":5827,"luffy":5828,"market":5829,"symmetric":5830,"owo":5831,"owens":5832,"footage":5833,"sleep":5834,"limonick":5835,"temperate":5836,"mother":5837,"popes":5838,"##connected":5839,"akihiko":5840,"serious":5841,"balazs":5842,"zeiss":5843,"kingdom":5844,"bowl":5845,"saturated":5846,"album":5847,"fractals":5848,"torso":5849,"toronto":5850,"annibale":5851,"cathedral":5852,"freckles":5853,"nicolas":5854,"iridium":5855,"eternas":5856,"ladies":5857,"gener":5858,"shoot":5859,"decoration":5860,"recursive":5861,"ruggedly":5862,"youth":5863,"followed":5864,"tsutomi":5865,"range":5866,"henry":5867,"business":5868,"dwarven":5869,"muddy":5870,"racoon":5871,"rivia":5872,"destiny":5873,"egyptian":5874,"hamster":5875,"hammer":5876,"lamps":5877,"##uchi":5878,"tonal":5879,"claymation":5880,"plasticine":5881,"brooks":5882,"first":5883,"guns":5884,"howling":5885,"sakimich":5886,"spiraling":5887,"necro":5888,"bulb":5889,"athle":5890,"barbarian":5891,"cottagecore":5892,"vulcan":5893,"shavings":5894,"civilizations":5895,"jumpsuits":5896,"halo":5897,"metrop":5898,"versus":5899,"carvings":5900,"nuzzles":5901,"satanic":5902,"airplain":5903,"sustainable":5904,"brick":5905,"nona":5906,"rotting":5907,"while":5908,"tortoise":5909,"kaiju":5910,"rousseau":5911,"random":5912,"vittorio":5913,"wreck":5914,"spooky":5915,"horrific":5916,"correct":5917,"vegitation":5918,"turquois":5919,"dismal":5920,"ellis":5921,"practical":5922,"yennefer":5923,"revealing":5924,"shaman":5925,"occult":5926,"neoclass":5927,"skateboard":5928,"mugshot":5929,"emperor":5930,"crewdson":5931,"crawling":5932,"carracci":5933,"diagrams":5934,"harmonic":5935,"struzan":5936,"viktor":5937,"spaghetti":5938,"manufactured":5939,"sunbeams":5940,"aizome":5941,"agoston":5942,"aquarium":5943,"dulac":5944,"derek":5945,"doraemon":5946,"junkshop":5947,"jordan":5948,"normal":5949,"ogata":5950,"pengu":5951,"stair":5952,"umbrell":5953,"waliszewska":5954,"zawadzki":5955,"deharme":5956,"incantus":5957,"blossom":5958,"florent":5959,"haephestus":5960,"occlusion":5961,"leprechaun":5962,"sakimichan":5963,"ariel":5964,"count":5965,"dj":5966,"dou":5967,"egon":5968,"fai":5969,"fore":5970,"gor":5971,"gio":5972,"gav":5973,"gears":5974,"ginger":5975,"hi":5976,"hone":5977,"home":5978,"hist":5979,"hatch":5980,"hind":5981,"holy":5982,"ite":5983,"jok":5984,"jump":5985,"kill":5986,"kush":5987,"kpop":5988,"lock":5989,"mur":5990,"might":5991,"munch":5992,"nav":5993,"obs":5994,"pit":5995,"penta":5996,"sens":5997,"ti":5998,"tit":5999,"tou":6000,"torn":6001,"tiled":6002,"tattered":6003,"utop":6004,"wra":6005,"wig":6006,"wes":6007,"yue":6008,"##su":6009,"##wis":6010,"##wea":6011,"##rrell":6012,"##ira":6013,"##oit":6014,"##nel":6015,"##mor":6016,"##mill":6017,"##mouse":6018,"##lon":6019,"##cc":6020,"##cu":6021,"##cle":6022,"##coon":6023,"##dan":6024,"##des":6025,"##drop":6026,"##bur":6027,"##gu":6028,"##gar":6029,"##ggy":6030,"##kes":6031,"##vic":6032,"##vron":6033,"##flow":6034,"##..":6035,"##inst":6036,"##inavian":6037,"##erk":6038,"##erent":6039,"##ndall":6040,"##lea":6041,"##rtle":6042,"##rest":6043,"##igar":6044,"##ari":6045,"##aros":6046,"##arium":6047,"artge":6048,"##orma":6049,"##isible":6050,"##acing":6051,"##acial":6052,"paw":6053,"##oured":6054,"##omaton":6055,"##lli":6056,"shoson":6057,"##eter":6058,"pool":6059,"##ulsing":6060,"##cel":6061,"them":6062,"ant":6063,"##ocross":6064,"blas":6065,"##unt":6066,"colle":6067,"##enth":6068,"chal":6069,"##adsh":6070,"##adelic":6071,"##iele":6072,"scream":6073,"##rilen":6074,"enorm":6075,"##rored":6076,"##gerberg":6077,"arsen":6078,"lightwea":6079,"almond":6080,"##hist":6081,"glor":6082,"glacial":6083,"lewis":6084,"robert":6085,"roof":6086,"##bera":6087,"##berty":6088,"mob":6089,"##keuchi":6090,"liam":6091,"liberty":6092,"##omaniac":6093,"backlit":6094,"##ource":6095,"robby":6096,"##ounced":6097,"##wards":6098,"emika":6099,"succ":6100,"place":6101,"plag":6102,"cron":6103,"##ibo":6104,"orig":6105,"isekai":6106,"shader":6107,"rossier":6108,"michal":6109,"##eller":6110,"launch":6111,"furr":6112,"dove":6113,"muscled":6114,"spacex":6115,"spacecraft":6116,"spaceport":6117,"disco":6118,"futurist":6119,"carrying":6120,"cheer":6121,"chevron":6122,"trian":6123,"barbera":6124,"buzz":6125,"baza":6126,"woodstock":6127,"wealth":6128,"rhino":6129,"imaging":6130,"kendall":6131,"mini":6132,"minjun":6133,"shorthair":6134,"tyrrell":6135,"juniper":6136,"daylight":6137,"##itts":6138,"alexand":6139,"##brot":6140,"babymouse":6141,"babylon":6142,"evangel":6143,"harpers":6144,"haribo":6145,"##minae":6146,"indigo":6147,"stick":6148,"steph":6149,"ferrand":6150,"##iusz":6151,"shel":6152,"angelic":6153,"choko":6154,"reflecting":6155,"complete":6156,"##tiano":6157,"schiele":6158,"complexion":6159,"parker":6160,"gaudy":6161,"academia":6162,"electric":6163,"specular":6164,"takashi":6165,"news":6166,"##entary":6167,"##ouldered":6168,"ares":6169,"sloth":6170,"circle":6171,"menacing":6172,"pope":6173,"finish":6174,"ninete":6175,"zoe":6176,"zoo":6177,"different":6178,"bank":6179,"schoolgirl":6180,"opulent":6181,"palace":6182,"windows":6183,"foxes":6184,"fresh":6185,"##ombat":6186,"silhouett":6187,"shirtless":6188,"stripe":6189,"multicolored":6190,"automaton":6191,"hoang":6192,"lynch":6193,"massively":6194,"dinner":6195,"yoga":6196,"teak":6197,"cristiano":6198,"##boards":6199,"erminae":6200,"chiaros":6201,"runway":6202,"jansson":6203,"mirrored":6204,"brazier":6205,"vengerberg":6206,"shows":6207,"adventur":6208,"controlled":6209,"batman":6210,"jenner":6211,"ronaldo":6212,"##curo":6213,"mythology":6214,"nostalgic":6215,"dariusz":6216,"raccoon":6217,"rivers":6218,"anatomy":6219,"grassland":6220,"impulsing":6221,"streamers":6222,"benoit":6223,"brother":6224,"waterfalls":6225,"depicting":6226,"invisible":6227,"machinarium":6228,"broadsh":6229,"levitan":6230,"nymph":6231,"##otype":6232,"!!!!!!!,":6233,"gemstone":6234,"desktop":6235,"mandelbrot":6236,"presents":6237,"sigma":6238,"toward":6239,"readability":6240,"panorama":6241,"together":6242,"##vanni":6243,"vegetation":6244,"destroyed":6245,"funkadelic":6246,"pulp":6247,"imposingly":6248,"advertisement":6249,"against":6250,"motocross":6251,"packed":6252,"witness":6253,"simpson":6254,"circuitboards":6255,"minecraft":6256,"sailor":6257,"sleeps":6258,"houses":6259,"nelson":6260,"named":6261,"scandinavian":6262,"sclerae":6263,"lebrun":6264,"supreme":6265,"edvard":6266,"pronounced":6267,"swift":6268,"architectural":6269,"select":6270,"metropolis":6271,"viktoria":6272,"penguin":6273,"giovanni":6274,"gavrilen":6275,"joker":6276,"pentagon":6277,"artgem":6278,"enormous":6279,"lightweaver":6280,"plague":6281,"bazaar":6282,"evangelion":6283,"silhouettes":6284,"chiaroscuro":6285,"broadshouldered":6286,"gavrilenko":6287,"ai":6288,"austra":6289,"bod":6290,"bap":6291,"bab":6292,"bish":6293,"bald":6294,"bang":6295,"bolog":6296,"ced":6297,"cand":6298,"ds":6299,"dad":6300,"dap":6301,"dag":6302,"ene":6303,"fus":6304,"fate":6305,"fri":6306,"found":6307,"fusion":6308,"got":6309,"hod":6310,"ix":6311,"jog":6312,"kra":6313,"kate":6314,"kind":6315,"lat":6316,"les":6317,"let":6318,"lara":6319,"lord":6320,"lise":6321,"mis":6322,"mun":6323,"morph":6324,"nice":6325,"ol":6326,"ort":6327,"oas":6328,"oli":6329,"pull":6330,"pran":6331,"pray":6332,"rod":6333,"ritts":6334,"sal":6335,"sph":6336,"sni":6337,"sera":6338,"sony":6339,"sonic":6340,"tal":6341,"tay":6342,"vol":6343,"word":6344,"wire":6345,"wick":6346,"wombat":6347,"xen":6348,"za":6349,"##sa":6350,"##aster":6351,"##ault":6352,"##woman":6353,"##wich":6354,"##worm":6355,"##wicz":6356,"##em":6357,"##eating":6358,"##ega":6359,"##rod":6360,"##hr":6361,"##if":6362,"##iet":6363,"##ification":6364,"##oh":6365,"##ox":6366,"##oir":6367,"##opher":6368,"##pu":6369,"##pled":6370,"##pper":6371,"##pard":6372,"##pical":6373,"##no":6374,"##nets":6375,"##mi":6376,"##met":6377,"##mery":6378,"##more":6379,"##mograph":6380,"##lor":6381,"##lers":6382,"##lian":6383,"##yas":6384,"##yard":6385,"##ywood":6386,"##uya":6387,"##dar":6388,"##dim":6389,"##bu":6390,"##bra":6391,"##bri":6392,"##bae":6393,"##grade":6394,"##kol":6395,"##kas":6396,"##kach":6397,"##kito":6398,"##fore":6399,"##junction":6400,"##zor":6401,"##inn":6402,"##inas":6403,"##eronym":6404,"##ono":6405,"##tia":6406,"##tim":6407,"##leon":6408,"##anond":6409,"##armor":6410,"##itoshi":6411,"##icon":6412,"##icature":6413,"##icism":6414,"##icorn":6415,"##ena":6416,"##encer":6417,"##atrical":6418,"ofir":6419,"insta":6420,"##ischer":6421,"##otz":6422,"pass":6423,"paras":6424,"##owa":6425,"##esa":6426,"rex":6427,"##lling":6428,"##eap":6429,"shock":6430,"##ossy":6431,"polen":6432,"##ulu":6433,"##ila":6434,"theatrical":6435,"map":6436,"##master":6437,"anub":6438,"##chs":6439,"##ching":6440,"##chai":6441,"constr":6442,"conjunction":6443,"##iminas":6444,"##phael":6445,"##unanond":6446,"without":6447,"##ids":6448,"intell":6449,"##kies":6450,"colum":6451,"chir":6452,"chill":6453,"##iej":6454,"##ries":6455,"enchan":6456,"enters":6457,"##ersham":6458,"##aceous":6459,"cliff":6460,"spang":6461,"spencer":6462,"colorgrade":6463,"##roach":6464,"arunanond":6465,"smiles":6466,"alone":6467,"also":6468,"##hiop":6469,"##hieronym":6470,"manner":6471,"##haven":6472,"glossy":6473,"lemon":6474,"unicorn":6475,"rovers":6476,"before":6477,"moons":6478,"##abay":6479,"need":6480,"neut":6481,"lizard":6482,"lox":6483,"traff":6484,"stain":6485,"stained":6486,"five":6487,"photographic":6488,"elements":6489,"##ensional":6490,"fruits":6491,"smoky":6492,"##scra":6493,"engineer":6494,"##chart":6495,"##lented":6496,"tender":6497,"##lies":6498,"warner":6499,"camaz":6500,"pey":6501,"creed":6502,"jello":6503,"##ages":6504,"##iving":6505,"pixabay":6506,"##aker":6507,"noble":6508,"toon":6509,"meog":6510,"##inson":6511,"##urate":6512,"filmic":6513,"orphan":6514,"botan":6515,"heraldo":6516,"##achad":6517,"match":6518,"##ademic":6519,"hors":6520,"stiker":6521,"##ilded":6522,"sunflow":6523,"##elling":6524,"lazar":6525,"monit":6526,"monoch":6527,"##blem":6528,"fluox":6529,"army":6530,"danny":6531,"nightsky":6532,"##nium":6533,"caricature":6534,"greenhouse":6535,"##color":6536,"splatter":6537,"soles":6538,"##ationary":6539,"##chel":6540,"china":6541,"baja":6542,"skyscra":6543,"woodring":6544,"minna":6545,"apothe":6546,"polar":6547,"##queen":6548,"surrealist":6549,"sprite":6550,"brains":6551,"models":6552,"marco":6553,"edwardian":6554,"disneyland":6555,"##bright":6556,"evoke":6557,"quad":6558,"quinn":6559,"leatherarmor":6560,"retrofuturism":6561,"player":6562,"##azu":6563,"prec":6564,"prehist":6565,"interdim":6566,"celtic":6567,"health":6568,"heywood":6569,"biomehieronym":6570,"cosmos":6571,"talented":6572,"pointy":6573,"steven":6574,"ferris":6575,"pineap":6576,"watercolour":6577,"panels":6578,"psychic":6579,"shepard":6580,"fauna":6581,"infinity":6582,"books":6583,"graphics":6584,"circular":6585,"mcqueen":6586,"##ucker":6587,"gauch":6588,"academic":6589,"##tiste":6590,"ethiop":6591,"foot":6592,"impressionistic":6593,"valky":6594,"slender":6595,"limmen":6596,"slices":6597,"crossbre":6598,"profit":6599,"##ucationary":6600,"karol":6601,"hunt":6602,"mandala":6603,"banana":6604,"eslle":6605,"pikach":6606,"yukito":6607,"analogous":6608,"repeating":6609,"grimmer":6610,"cards":6611,"iconic":6612,"waters":6613,"galaxies":6614,"cemet":6615,"shoham":6616,"veileducationary":6617,"cowboy":6618,"informa":6619,"decorations":6620,"irina":6621,"##ucted":6622,"runner":6623,"gloomhaven":6624,"flesh":6625,"fleischer":6626,"sweet":6627,"vertical":6628,"showcase":6629,"attacks":6630,"busy":6631,"gigachad":6632,"kids":6633,"kidmograph":6634,"darrow":6635,"everyone":6636,"washes":6637,"yoshitoshi":6638,"geof":6639,"domestic":6640,"ornamental":6641,"savras":6642,"techno":6643,"technical":6644,"glazing":6645,"herbaceous":6646,"advertising":6647,"spiral":6648,"docum":6649,"lantern":6650,"!!!!!!!!!!!":6651,"eastman":6652,"homer":6653,"##marine":6654,"mandelbulb":6655,"hangar":6656,"titans":6657,"titanium":6658,"format":6659,"gekko":6660,"gekkol":6661,"gelatinosis":6662,"##ckevic":6663,"##eakers":6664,"shibuya":6665,"strawberry":6666,"commun":6667,"exhibit":6668,"artifacts":6669,"shimmery":6670,"striking":6671,"spattering":6672,"murals":6673,"identity":6674,"multiversal":6675,"winged":6676,"cookies":6677,"legendary":6678,"equator":6679,"kishiro":6680,"ossdraws":6681,"vasnets":6682,"motifs":6683,"sundberg":6684,"johannes":6685,"splitting":6686,"exploded":6687,"accurate":6688,"gediminas":6689,"gospel":6690,"pants":6691,"troo":6692,"virgin":6693,"spectral":6694,"graveyard":6695,"neoclassicism":6696,"fairey":6697,"foreground":6698,"sensual":6699,"##igarchs":6700,"screaming":6701,"arsenault":6702,"origami":6703,"stephen":6704,"nineteenth":6705,"zoelea":6706,"adventurer":6707,"witnessing":6708,"baptiste":6709,"bishop":6710,"dappled":6711,"enemy":6712,"ixchel":6713,"joghpurs":6714,"oligarchs":6715,"ortega":6716,"oasis":6717,"pulls":6718,"pranckevic":6719,"taylor":6720,"wickersham":6721,"polenov":6722,"anubis":6723,"intellig":6724,"enchanting":6725,"arunanondchai":6726,"mannerism":6727,"roversi":6728,"traffic":6729,"camazotz":6730,"apotheosis":6731,"prehistoric":6732,"interdimensional":6733,"healthy":6734,"biomehieronymus":6735,"valkyrie":6736,"crossbreed":6737,"esllection":6738,"pikachu":6739,"cemetery":6740,"informative":6741,"savrasov":6742,"gekkolings":6743,"vasnetsov":6744,"pranckevicius":6745,"#,":6746,"aer":6747,"aper":6748,"aub":6749,"arist":6750,"bust":6751,"bull":6752,"bav":6753,"bart":6754,"bung":6755,"budd":6756,"cig":6757,"cum":6758,"cod":6759,"coun":6760,"dal":6761,"dun":6762,"dull":6763,"dock":6764,"dash":6765,"drop":6766,"darth":6767,"eaton":6768,"fed":6769,"gons":6770,"golf":6771,"gpu":6772,"hack":6773,"hog":6774,"hiro":6775,"if":6776,"iral":6777,"jab":6778,"jak":6779,"jane":6780,"jama":6781,"kan":6782,"kit":6783,"ken":6784,"kul":6785,"kushart":6786,"lich":6787,"moss":6788,"mire":6789,"mallen":6790,"now":6791,"nine":6792,"name":6793,"naz":6794,"og":6795,"pg":6796,"pow":6797,"pick":6798,"rid":6799,"rang":6800,"rms":6801,"sid":6802,"sound":6803,"sark":6804,"soci":6805,"sowa":6806,"tris":6807,"vod":6808,"vign":6809,"wy":6810,"wil":6811,"wille":6812,"well":6813,"wave":6814,"watt":6815,"wain":6816,"zat":6817,"##suit":6818,"##ata":6819,"##air":6820,"##aper":6821,"##ware":6822,"##run":6823,"##ritch":6824,"##oo":6825,"##ozy":6826,"##pr":6827,"##pi":6828,"##net":6829,"##niv":6830,"##nia":6831,"##munk":6832,"##metrical":6833,"##lr":6834,"##lus":6835,"##yl":6836,"##cal":6837,"##ues":6838,"##uel":6839,"##ugh":6840,"##uci":6841,"##bust":6842,"##bear":6843,"##bash":6844,"##got":6845,"##gular":6846,"##kh":6847,"##ken":6848,"##kind":6849,"##vol":6850,"##fan":6851,"##faces":6852,"##zka":6853,"##inf":6854,"##inian":6855,"##onometric":6856,"##onimb":6857,"##ties":6858,"##leblad":6859,"##ravern":6860,"##anel":6861,"##aris":6862,"##icle":6863,"##enberg":6864,"##aturated":6865,"deer":6866,"##stry":6867,"##olin":6868,"parade":6869,"##esque":6870,"##ouard":6871,"##oming":6872,"##omaly":6873,"##omuse":6874,"rela":6875,"##etex":6876,"##stant":6877,"##ula":6878,"##ulonimb":6879,"##celain":6880,"##cestry":6881,"stro":6882,"stern":6883,"story":6884,"##iric":6885,"maze":6886,"##mad":6887,"anti":6888,"anomaly":6889,"ancestry":6890,"##occoli":6891,"bliss":6892,"blast":6893,"blunt":6894,"##askas":6895,"conif":6896,"##iman":6897,"##ithfull":6898,"##phin":6899,"##idian":6900,"colli":6901,"coloured":6902,"chap":6903,"chimp":6904,"##oda":6905,"flam":6906,"scan":6907,"scare":6908,"scrat":6909,"ruth":6910,"hyp":6911,"hyd":6912,"sport":6913,"spraw":6914,"stylish":6915,"arising":6916,"than":6917,"thinking":6918,"ocoh":6919,"mang":6920,"mankind":6921,"drama":6922,"lehr":6923,"roo":6924,"##anda":6925,"##apping":6926,"##alls":6927,"##kem":6928,"##uding":6929,"libra":6930,"log":6931,"trave":6932,"bros":6933,"broccoli":6934,"stack":6935,"fiery":6936,"##oldy":6937,"backdrop":6938,"cort":6939,"##aiian":6940,"which":6941,"##ogne":6942,"desaturated":6943,"##liam":6944,"##life":6945,"##lified":6946,"headband":6947,"emilia":6948,"caution":6949,"carel":6950,"caustic":6951,"cavill":6952,"peach":6953,"characterdes":6954,"syl":6955,"plush":6956,"##ago":6957,"##athing":6958,"##athic":6959,"nostrom":6960,"meme":6961,"megan":6962,"raphael":6963,"catgirl":6964,"girls":6965,"edison":6966,"edouard":6967,"vinyl":6968,"overla":6969,"##avor":6970,"johfra":6971,"prot":6972,"prime":6973,"dreamcore":6974,"laure":6975,"gerald":6976,"forrest":6977,"##tures":6978,"nighttime":6979,"##astel":6980,"##quin":6981,"carniv":6982,"draws":6983,"##izz":6984,"windy":6985,"swole":6986,"behold":6987,"leaf":6988,"outrun":6989,"composite":6990,"shield":6991,"##lings":6992,"##ctional":6993,"devo":6994,"texts":6995,"jackson":6996,"starred":6997,"mixing":6998,"web":6999,"skinny":7000,"forests":7001,"sitted":7002,"kee":7003,"keith":7004,"mind":7005,"minion":7006,"##lesome":7007,"makovsky":7008,"##itania":7009,"traveling":7010,"walks":7011,"shorts":7012,"amber":7013,"resource":7014,"curtis":7015,"miami":7016,"even":7017,"playstation":7018,"garb":7019,"harley":7020,"colliding":7021,"collignon":7022,"rocky":7023,"##inda":7024,"interconnected":7025,"masked":7026,"takeuchi":7027,"willink":7028,"sneakers":7029,"vivald":7030,"macross":7031,"sheep":7032,"heroine":7033,"reflective":7034,"faithfull":7035,"astral":7036,"graphs":7037,"daisy":7038,"burnt":7039,"earl":7040,"shopping":7041,"zdis":7042,"##alves":7043,"realm":7044,"parks":7045,"parkinson":7046,"across":7047,"unspaceship":7048,"battling":7049,"worker":7050,"eldritch":7051,"crosses":7052,"goat":7053,"##uerre":7054,"##inaison":7055,"classroom":7056,"cabanel":7057,"casual":7058,"balaskas":7059,"court":7060,"vampiric":7061,"yelling":7062,"zeen":7063,"grandmaster":7064,"davis":7065,"christopher":7066,"##ainment":7067,"##hoe":7068,"saturn":7069,"minimal":7070,"palm":7071,"milton":7072,"falling":7073,"cuban":7074,"cubism":7075,"porcelain":7076,"bleed":7077,"##fully":7078,"kittens":7079,"hoodie":7080,"wield":7081,"subway":7082,"hover":7083,"merged":7084,"konstant":7085,"turtle":7086,"##otable":7087,"##agged":7088,"jurabae":7089,"turb":7090,"turning":7091,"ghosts":7092,"drunk":7093,"runes":7094,"combinaison":7095,"cello":7096,"berg":7097,"berries":7098,"gamer":7099,"microbe":7100,"donuts":7101,"speeding":7102,"##opebright":7103,"brazilian":7104,"natal":7105,"attacking":7106,"brandishing":7107,"wholesome":7108,"brilli":7109,"dinosaurs":7110,"luminous":7111,"sorrow":7112,"bathing":7113,"solar":7114,"chicken":7115,"flags":7116,"bakery":7117,"scottish":7118,"hyperborean":7119,"directional":7120,"hitman":7121,"ufotable":7122,"cooking":7123,"morty":7124,"lusitania":7125,"francisco":7126,"nocturn":7127,"hadid":7128,"missile":7129,"civilization":7130,"jumpsuit":7131,"hanging":7132,"leement":7133,"cheesebur":7134,"panoramic":7135,"bosschart":7136,"mossy":7137,"shiba":7138,"exhibition":7139,"joyful":7140,"artifact":7141,"##adsadsadsads":7142,"axe":7143,"axonometric":7144,"cerebri":7145,"hassleblad":7146,"##tivity":7147,"immensely":7148,"serene":7149,"stalker":7150,"smartphone":7151,"enterainment":7152,"raytracing":7153,"rhizomuse":7154,"cockpit":7155,"getting":7156,"tunnel":7157,"watching":7158,"shrimp":7159,"blockbust":7160,"robbes":7161,"croft":7162,"hulk":7163,"hawaiian":7164,"haunting":7165,"nendroid":7166,"magnus":7167,"mechanics":7168,"items":7169,"almonds":7170,"cheerful":7171,"alexandre":7172,"towards":7173,"cedric":7174,"dslr":7175,"daguerre":7176,"hodas":7177,"sphere":7178,"talking":7179,"columbo":7180,"chirico":7181,"neutral":7182,"peyravern":7183,"meogard":7184,"botanical":7185,"monochrome":7186,"quadratic":7187,"gaucho":7188,"documentary":7189,"aperture":7190,"aristoc":7191,"bavarian":7192,"bungie":7193,"cumulonimb":7194,"gonsalves":7195,"hackers":7196,"iralki":7197,"kuldar":7198,"ninetails":7199,"nazi":7200,"rangers":7201,"sarkozy":7202,"social":7203,"tristan":7204,"vodka":7205,"willem":7206,"watteau":7207,"zatzka":7208,"stroke":7209,"conifers":7210,"collier":7211,"scarecrow":7212,"ocohopebright":7213,"characterdesign":7214,"nostromo":7215,"overlaid":7216,"carnival":7217,"konstantin":7218,"jurabaev":7219,"brilliant":7220,"cheeseburger":7221,"blockbuster":7222,"peyravernay":7223,"cumulonimbus":7224,"ama":7225,"aust":7226,"arian":7227,"bin":7228,"bon":7229,"bic":7230,"bers":7231,"bong":7232,"btil":7233,"cri":7234,"camp":7235,"dord":7236,"era":7237,"esta":7238,"fv":7239,"fun":7240,"faro":7241,"fallen":7242,"gas":7243,"gilded":7244,"gmunk":7245,"hut":7246,"hir":7247,"harle":7248,"holog":7249,"hout":7250,"hiding":7251,"hip":7252,"hidden":7253,"jaw":7254,"ker":7255,"kus":7256,"kad":7257,"kore":7258,"kalak":7259,"kunkka":7260,"lur":7261,"mack":7262,"nig":7263,"noth":7264,"nore":7265,"nga":7266,"overs":7267,"pra":7268,"pud":7269,"pry":7270,"pater":7271,"pub":7272,"pitt":7273,"row":7274,"rad":7275,"rome":7276,"rush":7277,"rings":7278,"risk":7279,"soc":7280,"song":7281,"sov":7282,"tard":7283,"tap":7284,"tag":7285,"tired":7286,"tile":7287,"tied":7288,"vs":7289,"vio":7290,"vader":7291,"want":7292,"wist":7293,"ware":7294,"wicked":7295,"xi":7296,"yhar":7297,"zack":7298,"zeld":7299,"zucker":7300,"##sum":7301,"##aul":7302,"##where":7303,"##tte":7304,"##ez":7305,"##eting":7306,"##eff":7307,"##ru":7308,"##rin":7309,"##hul":7310,"##iod":7311,"##ozo":7312,"##pes":7313,"##pathic":7314,"##las":7315,"##lated":7316,"##cons":7317,"##clop":7318,"##ua":7319,"##uta":7320,"##ukka":7321,"##dark":7322,"##bers":7323,"##bok":7324,"##bird":7325,"##buzz":7326,"##gura":7327,"##gram":7328,"##kit":7329,"##ket":7330,"##kowski":7331,"##kunkka":7332,"##fa":7333,"##fy":7334,"##zcz":7335,"##inity":7336,"##erin":7337,"##ering":7338,"##eros":7339,"##eroth":7340,"##erley":7341,"##erence":7342,"##onating":7343,"##onna":7344,"##onoke":7345,"##tit":7346,"##tie":7347,"##tible":7348,"##tism":7349,"##rari":7350,"##ange":7351,"##igne":7352,"##arta":7353,"##arra":7354,"##arus":7355,"##ario":7356,"artby":7357,"##ited":7358,"devel":7359,"depress":7360,"##stler":7361,"##stead":7362,"inn":7363,"incl":7364,"byerley":7365,"##otsky":7366,"##otesque":7367,"##tail":7368,"##ollin":7369,"##acy":7370,"##acro":7371,"##edt":7372,"##edia":7373,"##edural":7374,"##esz":7375,"##heim":7376,"##ouched":7377,"rez":7378,"reaper":7379,"##ller":7380,"##lluc":7381,"shins":7382,"##lygon":7383,"##lywood":7384,"##osph":7385,"##stache":7386,"poin":7387,"pointing":7388,"ones":7389,"onsc":7390,"stu":7391,"stellar":7392,"steak":7393,"sthul":7394,"##irk":7395,"hight":7396,"maple":7397,"##mament":7398,"ankh":7399,"##occan":7400,"blod":7401,"bluth":7402,"blair":7403,"##amet":7404,"##asm":7405,"##aser":7406,"##asant":7407,"portman":7408,"cont":7409,"consc":7410,"##phom":7411,"##urus":7412,"photobash":7413,"within":7414,"##pto":7415,"##pter":7416,"##ptuous":7417,"##enter":7418,"chic":7419,"chess":7420,"trend":7421,"tread":7422,"##gey":7423,"##odes":7424,"##ado":7425,"##aded":7426,"##ief":7427,"flavor":7428,"enti":7429,"ente":7430,"ency":7431,"##vest":7432,"##ayer":7433,"##ighton":7434,"spar":7435,"spaces":7436,"spaceshi":7437,"hale":7438,"hazard":7439,"hagan":7440,"##rof":7441,"##gery":7442,"lightbulb":7443,"##tend":7444,"##tending":7445,"alita":7446,"thorn":7447,"mana":7448,"glist":7449,"glory":7450,"glaser":7451,"leighton":7452,"bec":7453,"been":7454,"##berpunk":7455,"##aping":7456,"atkins":7457,"##abre":7458,"lima":7459,"lofi":7460,"stab":7461,"state":7462,"##omancer":7463,"##ckrender":7464,"backwards":7465,"##ourney":7466,"##sco":7467,"##sche":7468,"##okazu":7469,"coins":7470,"coast":7471,"comfy":7472,"whis":7473,"exp":7474,"exped":7475,"exesa":7476,"mugh":7477,"##aliae":7478,"telet":7479,"##lia":7480,"emman":7481,"emblem":7482,"cakes":7483,"pesty":7484,"pelluc":7485,"biod":7486,"biped":7487,"cream":7488,"cresting":7489,"##meer":7490,"symetrical":7491,"plane":7492,"platin":7493,"##agon":7494,"##vironement":7495,"grapes":7496,"##assemb":7497,"novas":7498,"mendo":7499,"meiner":7500,"meeting":7501,"rave":7502,"raven":7503,"catwoman":7504,"##century":7505,"##nerton":7506,"edge":7507,"edwin":7508,"##ppe":7509,"##illa":7510,"overl":7511,"medical":7512,"boho":7513,"booty":7514,"hercu":7515,"surfaces":7516,"##eplay":7517,"matsu":7518,"##pair":7519,"##page":7520,"corn":7521,"sunlit":7522,"##istence":7523,"insight":7524,"##elli":7525,"##ellation":7526,"mattepainting":7527,"prin":7528,"permed":7529,"period":7530,"mononoke":7531,"##plar":7532,"scenario":7533,"dye":7534,"decaying":7535,"craters":7536,"fury":7537,"archive":7538,"brownhair":7539,"brownbuzz":7540,"door":7541,"disgu":7542,"disassemb":7543,"##nik":7544,"carr":7545,"carbon":7546,"##mosphere":7547,"##ientia":7548,"##aneese":7549,"swyn":7550,"##orted":7551,"built":7552,"geert":7553,"georg":7554,"##ronom":7555,"##ested":7556,"superman":7557,"grime":7558,"grotesque":7559,"tomboy":7560,"tomokazu":7561,"viewer":7562,"framed":7563,"terri":7564,"baphom":7565,"starck":7566,"starwar":7567,"bloody":7568,"##tainment":7569,"skinned":7570,"sits":7571,"##arette":7572,"imagery":7573,"##roplated":7574,"kehoe":7575,"##fei":7576,"tablet":7577,"neckline":7578,"ape":7579,"apof":7580,"apollin":7581,"crypto":7582,"midd":7583,"walotsky":7584,"blurred":7585,"donata":7586,"resonating":7587,"ripped":7588,"curtain":7589,"edwards":7590,"japaneese":7591,"sew":7592,"##iousness":7593,"##omorphs":7594,"emerging":7595,"emerged":7596,"drip":7597,"seaside":7598,"aftern":7599,"lioness":7600,"elon":7601,"india":7602,"emeralds":7603,"animaliae":7604,"##elsen":7605,"intert":7606,"bonsai":7607,"wilders":7608,"camel":7609,"tatar":7610,"##book":7611,"stefan":7612,"ferret":7613,"ferrari":7614,"panini":7615,"finalrender":7616,"guerin":7617,"kneeling":7618,"emoji":7619,"burger":7620,"koi":7621,"early":7622,"##tangular":7623,"coherence":7624,"schwar":7625,"mcdon":7626,"postcy":7627,"fights":7628,"delacro":7629,"##mering":7630,"electroplated":7631,"##osaurus":7632,"tablecl":7633,"industries":7634,"defined":7635,"claesz":7636,"labrad":7637,"sumptuous":7638,"truck":7639,"kimono":7640,"demoness":7641,"personification":7642,"sidewalk":7643,"templar":7644,"moroccan":7645,"scarry":7646,"slayer":7647,"works":7648,"pictures":7649,"##blishing":7650,"williams":7651,"denim":7652,"jacqu":7653,"##ship":7654,"##vention":7655,"casino":7656,"farron":7657,"sister":7658,"timothe":7659,"zoological":7660,"hillier":7661,"hyperrealist":7662,"optim":7663,"fresco":7664,"milhouse":7665,"paulin":7666,"blondie":7667,"grimdark":7668,"fishnet":7669,"visualdon":7670,"##rett":7671,"flashlight":7672,"monument":7673,"parrot":7674,"##oroid":7675,"handpaint":7676,"victoria":7677,"bernardo":7678,"infested":7679,"subject":7680,"submarine":7681,"merc":7682,"quest":7683,"reclines":7684,"rectangular":7685,"speci":7686,"aged":7687,"birth":7688,"crisis":7689,"scientists":7690,"symbolist":7691,"follygon":7692,"azores":7693,"azeroth":7694,"amazon":7695,"captain":7696,"distorted":7697,"advan":7698,"ashes":7699,"janus":7700,"jimmy":7701,"mads":7702,"madonna":7703,"sweat":7704,"terrain":7705,"gametex":7706,"gameplay":7707,"##riele":7708,"distant":7709,"ilm":7710,"procedural":7711,"propor":7712,"moustache":7713,"vermeer":7714,"araki":7715,"belarus":7716,"venus":7717,"retouched":7718,"butterflies":7719,"ringed":7720,"##mistry":7721,"##ungus":7722,"computers":7723,"brutality":7724,"tattoos":7725,"everywhere":7726,"nerves":7727,"children":7728,"calm":7729,"bottom":7730,"dreads":7731,"someone":7732,"##zeneg":7733,"patchwork":7734,"russet":7735,"wander":7736,"president":7737,"technology":7738,"bouguerea":7739,"bdsm":7740,"candyland":7741,"tonalism":7742,"tonalist":7743,"uspaceship":7744,"depicts":7745,"herbology":7746,"battlefields":7747,"firmament":7748,"rolling":7749,"roller":7750,"sakura":7751,"necronom":7752,"artificial":7753,"chamberlain":7754,"levitate":7755,"approach":7756,"ansell":7757,"athmosphere":7758,"severe":7759,"structures":7760,"dimensional":7761,"gabo":7762,"gabriele":7763,"eastwood":7764,"homm":7765,"vulva":7766,"heavenly":7767,"avril":7768,"sixth":7769,"towers":7770,"##🚬🚬🚬🚬":7771,"ready":7772,"bellotto":7773,"telepathic":7774,"dolom":7775,"dolphin":7776,"togashi":7777,"stockings":7778,"chief":7779,"nestled":7780,"vegetable":7781,"squidworm":7782,"##ycomb":7783,"shimmering":7784,"boxing":7785,"identikit":7786,"multiverses":7787,"barak":7788,"miller":7789,"vessel":7790,"entertainment":7791,"aspects":7792,"raytraced":7793,"rhizomorphs":7794,"carpet":7795,"carpenter":7796,"fangs":7797,"lavigne":7798,"molten":7799,"regal":7800,"weathered":7801,"juice":7802,"sienkie":7803,"tuxedo":7804,"wisps":7805,"colossus":7806,"thought":7807,"august":7808,"damaged":7809,"shooting":7810,"athletic":7811,"wreckage":7812,"staircase":7813,"umbrellas":7814,"blossoms":7815,"honeycomb":7816,"hatchlings":7817,"jumping":7818,"mighty":7819,"obsidian":7820,"utopia":7821,"##dancing":7822,"antlers":7823,"blaszcz":7824,"collec":7825,"chalamet":7826,"glorious":7827,"succub":7828,"cronenberg":7829,"buzzcut":7830,"miniature":7831,"newspaper":7832,"nymphomaniac":7833,"australian":7834,"serah":7835,"zaha":7836,"instagram":7837,"parasols":7838,"constructed":7839,"sunflowers":7840,"skyscraper":7841,"precision":7842,"pineapple":7843,"ethiopian":7844,"eastmancolor":7845,"nineteenthcentury":7846,"intelligence":7847,"buddha":7848,"cigarette":7849,"dalheim":7850,"hogarth":7851,"hirohiko":7852,"jakarta":7853,"##print":7854,"devotion":7855,"zdislaw":7856,"natalie":7857,"nocturno":7858,"daguerreotype":7859,"austin":7860,"berserk":7861,"btilc":7862,"dordogne":7863,"establishing":7864,"fvckrender":7865,"faroe":7866,"hiroshi":7867,"harlequin":7868,"hologram":7869,"houten":7870,"kermit":7871,"kadir":7872,"kalakukka":7873,"nothing":7874,"norem":7875,"pryor":7876,"patern":7877,"rowan":7878,"soviet":7879,"wistful":7880,"warehouse":7881,"yharnam":7882,"zelda":7883,"zuckerberg":7884,"##clopedia":7885,"artbykunkka":7886,"including":7887,"shinsekai":7888,"onscientia":7889,"sthulhu":7890,"blodied":7891,"consciousness":7892,"treadmill":7893,"entei":7894,"encyclopedia":7895,"glistening":7896,"atkinson":7897,"expedition":7898,"teletub":7899,"emmanuel":7900,"pellucens":7901,"bipedal":7902,"platinum":7903,"mendoza":7904,"meinerding":7905,"herculean":7906,"matsuyama":7907,"brownbuzzcut":7908,"disassembled":7909,"swynnerton":7910,"georgia":7911,"starwars":7912,"apofiss":7913,"apollinaris":7914,"afternoon":7915,"schwarzeneg":7916,"mcdonald":7917,"postcyberpunk":7918,"delacroix":7919,"tablecloth":7920,"labrador":7921,"timothee":7922,"optimistic":7923,"gametextures":7924,"belarusian":7925,"approached":7926,"sienkiewicz":7927,"blaszczak":7928,"dalheimer":7929,"schwarzenegger":7930,".'":7931,":'":7932,"].":7933,"ach":7934,"ade":7935,"ages":7936,"bj":7937,"bot":7938,"bark":7939,"bran":7940,"bind":7941,"bless":7942,"branch":7943,"cald":7944,"citi":7945,"dm":7946,"dish":7947,"dill":7948,"dick":7949,"ditt":7950,"doro":7951,"doll":7952,"duch":7953,"dmit":7954,"ech":7955,"eri":7956,"esc":7957,"escape":7958,"eador":7959,"fx":7960,"fen":7961,"faded":7962,"fungus":7963,"gy":7964,"gad":7965,"gall":7966,"gaw":7967,"gude":7968,"hos":7969,"hur":7970,"heda":7971,"ig":7972,"iphone":7973,"jov":7974,"jagged":7975,"kel":7976,"kur":7977,"kart":7978,"krat":7979,"loc":7980,"mt":7981,"mal":7982,"mea":7983,"mour":7984,"meng":7985,"meth":7986,"mignon":7987,"nj":7988,"nar":7989,"nap":7990,"os":7991,"od":7992,"osc":7993,"oka":7994,"oshi":7995,"oily":7996,"px":7997,"put":7998,"ppl":7999}}}